{
  "version": "1.0",
  "truncation": null,
  "padding": null,
  "added_tokens": [
    {
      "id": 0,
      "content": "[PAD]",
      "single_word": false,
      "lstrip": false,
      "rstrip": false,
      "normalized": false,
      "special": true
    },
    {
      "id": 1,
      "content": "[UNK]",
      "single_word": false,
      "lstrip": false,
      "rstrip": false,
      "normalized": false,
      "special": true
    },
    {
      "id": 2,
      "content": "[CLS]",
      "single_word": false,
      "lstrip": false,
      "rstrip": false,
      "normalized": false,
      "special": true
    },
    {
      "id": 3,
      "content": "[SEP]",
      "single_word": false,
      "lstrip": false,
      "rstrip": false,
      "normalized": false,
      "special": true
    },
    {
      "id": 4,
      "content": "[MASK]",
      "single_word": false,
      "lstrip": false,
      "rstrip": false,
      "normalized": false,
      "special": true
    }
  ],
  "normalizer": {
    "type": "Sequence",
    "normalizers": [
      {
        "type": "NFKC"
      }
    ]
  },
  "pre_tokenizer": {
    "type": "ByteLevel",
    "add_prefix_space": false,
    "trim_offsets": true,
    "use_regex": true
  },
  "post_processor": null,
  "decoder": {
    "type": "ByteLevel",
    "add_prefix_space": true,
    "trim_offsets": true,
    "use_regex": true
  },
  "model": {
    "type": "BPE",
    "dropout": null,
    "unk_token": "[UNK]",
    "continuing_subword_prefix": null,
    "end_of_word_suffix": null,
    "fuse_unk": false,
    "byte_fallback": false,
    "ignore_merges": false,
    "vocab": {
      "[PAD]": 0,
      "[UNK]": 1,
      "[CLS]": 2,
      "[SEP]": 3,
      "[MASK]": 4,
      "!": 5,
      "\"": 6,
      "&": 7,
      "'": 8,
      "(": 9,
      ")": 10,
      "*": 11,
      ",": 12,
      "-": 13,
      ".": 14,
      "/": 15,
      "0": 16,
      "1": 17,
      "2": 18,
      "3": 19,
      "4": 20,
      "5": 21,
      "6": 22,
      "7": 23,
      "8": 24,
      "9": 25,
      ":": 26,
      ";": 27,
      "=": 28,
      ">": 29,
      "?": 30,
      "A": 31,
      "B": 32,
      "C": 33,
      "D": 34,
      "E": 35,
      "F": 36,
      "G": 37,
      "H": 38,
      "I": 39,
      "J": 40,
      "K": 41,
      "L": 42,
      "M": 43,
      "N": 44,
      "O": 45,
      "P": 46,
      "Q": 47,
      "R": 48,
      "S": 49,
      "T": 50,
      "U": 51,
      "V": 52,
      "W": 53,
      "X": 54,
      "Y": 55,
      "Z": 56,
      "[": 57,
      "]": 58,
      "_": 59,
      "`": 60,
      "a": 61,
      "b": 62,
      "c": 63,
      "d": 64,
      "e": 65,
      "f": 66,
      "g": 67,
      "h": 68,
      "i": 69,
      "j": 70,
      "k": 71,
      "l": 72,
      "m": 73,
      "n": 74,
      "o": 75,
      "p": 76,
      "q": 77,
      "r": 78,
      "s": 79,
      "t": 80,
      "u": 81,
      "v": 82,
      "w": 83,
      "x": 84,
      "y": 85,
      "z": 86,
      "|": 87,
      "¡": 88,
      "¢": 89,
      "£": 90,
      "¤": 91,
      "¥": 92,
      "¦": 93,
      "§": 94,
      "¨": 95,
      "©": 96,
      "ª": 97,
      "«": 98,
      "¬": 99,
      "®": 100,
      "¯": 101,
      "°": 102,
      "±": 103,
      "²": 104,
      "³": 105,
      "µ": 106,
      "¶": 107,
      "·": 108,
      "¸": 109,
      "¹": 110,
      "¾": 111,
      "¿": 112,
      "à": 113,
      "Ċ": 114,
      "č": 115,
      "Ġ": 116,
      "Ģ": 117,
      "ģ": 118,
      "Ĥ": 119,
      "ĥ": 120,
      "Ħ": 121,
      "ħ": 122,
      "Ĩ": 123,
      "ĩ": 124,
      "Ī": 125,
      "ī": 126,
      "Ĭ": 127,
      "ĭ": 128,
      "Į": 129,
      "į": 130,
      "İ": 131,
      "ı": 132,
      "Ĳ": 133,
      "Ĵ": 134,
      "ĵ": 135,
      "Ķ": 136,
      "ķ": 137,
      "ĸ": 138,
      "Ĺ": 139,
      "ĺ": 140,
      "Ļ": 141,
      "ļ": 142,
      "Ľ": 143,
      "ľ": 144,
      "Ŀ": 145,
      "ŀ": 146,
      "Ł": 147,
      "ł": 148,
      "Ń": 149,
      "à°": 150,
      "à±": 151,
      "Ġà°": 152,
      "à±į": 153,
      "à°¿": 154,
      "à±ģ": 155,
      "à°¾": 156,
      "à°¨": 157,
      "à°Ĥ": 158,
      "à°°": 159,
      "à°²": 160,
      "à°ķ": 161,
      "à°¦": 162,
      "à°¤": 163,
      "à±ĩ": 164,
      "à°¡": 165,
      "à°Ł": 166,
      "à±ĭ": 167,
      "à°ª": 168,
      "à°µ": 169,
      "à°®": 170,
      "à°¯": 171,
      "à°Ĺ": 172,
      "à°¸": 173,
      "à°ļ": 174,
      "Ġà°ħ": 175,
      "à±Ĩ": 176,
      "à±Ģ": 177,
      "Ġà°µ": 178,
      "Ġà°ķ": 179,
      "Ġà°ª": 180,
      "Ġà°®": 181,
      "à±Ĥ": 182,
      "čĊ": 183,
      "Ġà°ļ": 184,
      "Ġà°¨": 185,
      "à°¿à°Ĥ": 186,
      "à±ģ.": 187,
      "Ġà°¤": 188,
      "à°³": 189,
      "..": 190,
      "Ġà°¸": 191,
      "à°¿.": 192,
      "à±ģà°Ĥ": 193,
      "Ġà°Ĩ": 194,
      "Ġ\"": 195,
      "à±Ĭ": 196,
      "à°·": 197,
      "à°¬": 198,
      "Ġà°°": 199,
      "ĊčĊ": 200,
      "Ġà°Ĺ": 201,
      "à°ľ": 202,
      "Ġà°ħà°¨": 203,
      "à°¶": 204,
      "ĠĠ": 205,
      "Ġà°¬": 206,
      "Ġà°¦": 207,
      "Ġà°ĩ": 208,
      "à±Ī": 209,
      "Ġà°²": 210,
      "Ġà°İ": 211,
      "à°§": 212,
      "à°£": 213,
      "à°¹": 214,
      "ĠčĊ": 215,
      "čĊĠčĊ": 216,
      "Ġà°ľ": 217,
      "Ġà°ī": 218,
      "à°¾à°Ĥ": 219,
      "à°µà°°": 220,
      "Ġà°ı": 221,
      "à±Ĩà°Ĥ": 222,
      "Ġà°ħà°¤": 223,
      "...": 224,
      "ĠĠĠĠ": 225,
      "Ġà°¶": 226,
      "à°Ń": 227,
      "Ġà°Ĵ": 228,
      "Ġà°¤à°¨": 229,
      "?\"": 230,
      "Ġà°Ń": 231,
      "à°²à°¨": 232,
      "Ġà°Ĵà°ķ": 233,
      "à°¦à°°": 234,
      "Ġà°¯": 235,
      "....": 236,
      "Ġà°®à°¨": 237,
      "Ġà°¹": 238,
      "Ġà°Ĩà°®": 239,
      "Ġà°µà°ļ": 240,
      "à°ħ": 241,
      "à°¿,": 242,
      "Ġà°ħà°¤à°¨": 243,
      "à±ĥ": 244,
      "à°²à°ķ": 245,
      "Ġà°Ī": 246,
      "à°¥": 247,
      "à±Ĭà°Ĥ": 248,
      "à°°à°®": 249,
      "à°¨à°Ł": 250,
      "Ġà°¡": 251,
      "à±ģ,": 252,
      "à°ªà°¡": 253,
      "à°ķà°¡": 254,
      "Ġà°ħà°¦": 255,
      "Ġà°®à°°": 256,
      "!\"": 257,
      "Ġà°«": 258,
      "Ġà°ħà°¯": 259,
      "à±ĭà°Ĥ": 260,
      "à°®à°¨": 261,
      "à°Łà°°": 262,
      "Ġà°ħà°¡": 263,
      "à°°à°ķ": 264,
      "à°¦à°¨": 265,
      "Ġà°ªà°°": 266,
      "à°ĸ": 267,
      "Ġà°ħà°°": 268,
      "Ġà°ķà°¨": 269,
      "à°°à°¤": 270,
      "Ġà°¤à°²": 271,
      "Ġà°ħà°²": 272,
      "à°¯à°¨": 273,
      "Ġà°ķà°²": 274,
      "à°µà°²": 275,
      "à°Łà°²": 276,
      "Ġà°ħà°µ": 277,
      "à°«": 278,
      "à±ģ\"": 279,
      "Ġà°Ł": 280,
      "ĠĠĠĠĠĠĠĠ": 281,
      "à°¯à°ķ": 282,
      "Ġà°ħà°®": 283,
      "à±į.": 284,
      "Ġ*": 285,
      "à±ĩà°Ĥ": 286,
      "Ġà°ªà°¡": 287,
      "Ġà°ħà°ª": 288,
      "à°¨à°¦": 289,
      "à°¾?\"": 290,
      "à°¸à°°": 291,
      "à°ªà°Ł": 292,
      "Ġ-": 293,
      "à°¾!": 294,
      "Ġà°¸à°®": 295,
      "à°¾?": 296,
      "Ġà°¸à°°": 297,
      "à°¬à°¡": 298,
      "à°ķà°°": 299,
      "Ġà°ĵ": 300,
      "à°ķà°ª": 301,
      "à°Ĺà°°": 302,
      "à°¤à°®": 303,
      "à°¤à°¨": 304,
      "à±Į": 305,
      "à°Ĥ.": 306,
      "à°¾.": 307,
      "à°¯à°®": 308,
      "à°µà°¡": 309,
      "Ġà°ľà°°": 310,
      "à°¯à°²": 311,
      "à°Ĺà°²": 312,
      "à°¨à°µ": 313,
      "Ġà°¦à°Ĺ": 314,
      "à°ķà°²": 315,
      "Ġà°ħà°ķ": 316,
      "à°¯à°Ł": 317,
      "Ġà°µà°¸": 318,
      "Ġà°ķà°³": 319,
      "Ġà°İà°ķ": 320,
      "à°¾,": 321,
      "Ġà°ĩà°¦": 322,
      "Ġà°¤à°°": 323,
      "Ġà°ªà°¨": 324,
      "Ġà°Ĩà°²": 325,
      "à°ı": 326,
      "Ġà°ħà°¤à°¡": 327,
      "Ġà°İà°µà°°": 328,
      "Ġà°¨à°µ": 329,
      "à°¨à°¨": 330,
      "à°·à°£": 331,
      "Ġà°ªà°Ł": 332,
      "à°°à°¯": 333,
      "à±ģ.\"": 334,
      "à°¨à°®": 335,
      "à°¤à°²": 336,
      "Ġà°ıà°®": 337,
      "à°ķà°¨": 338,
      "à°·à°¨": 339,
      "à°¦à°²": 340,
      "à°¨à°ķ": 341,
      "ĠĊčĊ": 342,
      "Ġà°¤à°ª": 343,
      "Ġà°§": 344,
      "à°ĩ": 345,
      "à°¿\"": 346,
      "Ġ'": 347,
      "à°¤à°ķ": 348,
      ".....": 349,
      "à°ªà°²": 350,
      "Ġà°īà°¨": 351,
      "Ġà°ªà°¦": 352,
      "à°°à°¸": 353,
      "à°°à°£": 354,
      "à°²à°²": 355,
      "à±Ĥ,": 356,
      "à°·à°¯": 357,
      "à°İ": 358,
      "à°°à°µ": 359,
      "à°Ĩ": 360,
      "à°µà°¤": 361,
      "à°ļà°¨": 362,
      "Ġà°İà°²": 363,
      "Ġà°ıà°¦": 364,
      "à°®à°²": 365,
      "à°ªà°°": 366,
      "à°¡à°²": 367,
      "Ġà°¬à°¯à°Ł": 368,
      "Ġà°Ĭ": 369,
      "à±ģ!": 370,
      "Ġà°®à°§": 371,
      "à°µà°¨": 372,
      "Ġà°®à°¨à°¸": 373,
      "à°²à°®": 374,
      "Ġà°īà°¦": 375,
      "à°¨à°ª": 376,
      "Ġà°ĩà°ª": 377,
      "à±Ģ,": 378,
      "Ġà°ħà°¸": 379,
      "à°Łà°¨": 380,
      "à°µà°ļ": 381,
      "à°¤à°°": 382,
      "à°ļà°°": 383,
      "à°¿!": 384,
      "à°ļà°²": 385,
      "à°ķà°Ł": 386,
      "Ġà°ķà°¦": 387,
      "Ġà°Ĩà°¶": 388,
      "Ġà°Ĩà°°": 389,
      "à°Ĥ,": 390,
      "à°¿?": 391,
      "à°µà°Ł": 392,
      "à°ŀ": 393,
      "à°ľà°¨": 394,
      "à°¡à°¨": 395,
      "à±ģ...": 396,
      "à°¿.\"": 397,
      "Ġà°¨à°¨": 398,
      "à±ĩ.": 399,
      "...\"": 400,
      "à°¡à°µ": 401,
      "Ġà°İà°¦": 402,
      "à°²à°µ": 403,
      "Ġà°Ĩà°¯à°¨": 404,
      "à±į!": 405,
      "à±ĭ,": 406,
      "à°®à°¯": 407,
      "à°ł": 408,
      "à°°à°¹": 409,
      "Ġà°®à°³": 410,
      "à°¡à°¦": 411,
      "à°°à°ª": 412,
      "à±ģ?": 413,
      "Ġà°ļà°¦": 414,
      "Ġà°¨à°¡": 415,
      "à°ĺ": 416,
      "Ġà°Ĺà°¦": 417,
      "Ġà°µà°¦": 418,
      "à°ªà°¤": 419,
      "à°°à°¨": 420,
      "Ġà°µà°°": 421,
      "à±Ĥà°Ĥ": 422,
      "à°²à°¤": 423,
      "à°¿?\"": 424,
      "__": 425,
      "Ġà°ħà°Ń": 426,
      "Ġà°ĩà°²": 427,
      "à°¯à°¸": 428,
      "à°¡à°Ĺ": 429,
      "Ġà°°à°ķ": 430,
      "à°®à°ķ": 431,
      "à°®à°°": 432,
      "Ġà°¨à°®": 433,
      "à°°à°¦": 434,
      "Ġà°·": 435,
      "à±ģ?\"": 436,
      "à°¤à°Ĺ": 437,
      "Ġà°Ńà°¯": 438,
      "à°²à°¬à°¡": 439,
      "Ġà°ĸ": 440,
      "à±Ĥ.": 441,
      "à°Ĺà°¤": 442,
      "Ġà°İà°¨": 443,
      "Ġà°İà°ª": 444,
      "à±ĩ,": 445,
      "Ġà°Ĩà°¨": 446,
      "Ġà°ĩà°ķ": 447,
      "Ġà°Ĩà°Ĺ": 448,
      "à°¿....": 449,
      "à°ªà°ķ": 450,
      "à°°à°¯à°¤": 451,
      "à°ļà°¡": 452,
      "à°³à°ķ": 453,
      "Ġà°ªà°ķ": 454,
      "à±Ģ!": 455,
      "Ġà°ħà°Ł": 456,
      "à°³à°¨": 457,
      "à±Īà°Ĥ": 458,
      "à°µà°°à°ķ": 459,
      "à°°à°¶": 460,
      "ĠĠĠĠĠĠĠĠĠĠĠĠĠĠĠĠ": 461,
      "à°¦à°ķ": 462,
      "à°Łà°ķ": 463,
      "Ġà°¤à°¨à°ķ": 464,
      "à°²à°¯": 465,
      "Ġà°¡à°¬": 466,
      "à°²à°Ĺ": 467,
      "à°¯à°¡": 468,
      "à°¦à°Ł": 469,
      "à°¾!\"": 470,
      "à±ĩ!": 471,
      "Ġà°Ńà°°": 472,
      "à°ľà°®": 473,
      "Ġà°ķà°Ł": 474,
      "Ġà°īà°¤": 475,
      "Ġà°ķà°°": 476,
      "à°°à°²": 477,
      "Ġà°ĩà°¨": 478,
      "à°ķà°®": 479,
      "Ġà°ħà°Ĺ": 480,
      "à°ħà°¦": 481,
      "Ġà°Ĺà°¡": 482,
      "à±į,": 483,
      "à°¦à°®": 484,
      "à°³à°²": 485,
      "à°ªà°¨": 486,
      "Ġ1": 487,
      "à°ıà°®": 488,
      "Ġà°®à°¹": 489,
      "Ġà°Ĩà°µ": 490,
      "à±ģ....": 491,
      "Ġà°¤à°Ĺ": 492,
      "Ġà°ıà°¡": 493,
      "Ġà°ĩà°ļ": 494,
      "à°¨à°Ĺ": 495,
      "à°Ĺà°®": 496,
      "à°¨à°²": 497,
      "à°¨à°¯": 498,
      "Ġà°Ĩà°¡": 499,
      "à±ģ-": 500,
      "à°Łà°®": 501,
      "à°¯à°µ": 502,
      "Ġà°¸à°¹": 503,
      "à±ĭ.": 504,
      "Ġà°¸à°¤": 505,
      "à°¯à°¤": 506,
      "à±į\"": 507,
      "à°¬à°°": 508,
      "à°¸à°²": 509,
      "Ġà°ĩà°µ": 510,
      "Ġà°²à°ķ": 511,
      "à°¡à°ķ": 512,
      "à°¾\"": 513,
      "à°¿...": 514,
      "à°¾à°Ĥ.": 515,
      "Ġà°ħà°¸à°²": 516,
      "Ġà°Ĩà°«": 517,
      "à°°à°Ĺ": 518,
      "Ġà°¸à°®à°¯": 519,
      "à°¨à°°": 520,
      "à°¡à°Ł": 521,
      "à°°à°ľ": 522,
      "Ġ!": 523,
      "à°µà°¦": 524,
      "à°ļà°Ł": 525,
      "čĊĠ": 526,
      "à°¯à°°": 527,
      "....\"": 528,
      "Ġà°¨à°²": 529,
      "Ġà°ľà°¨": 530,
      "à°§à°®": 531,
      "à°®à°®": 532,
      "Ġà°Ĩà°ª": 533,
      "à°¦à°µ": 534,
      "à±Ĥ!": 535,
      "à°Ī": 536,
      "à°¿-": 537,
      "Ġà°¤à°®": 538,
      "à°¡à°°": 539,
      "à°ļà°ķ": 540,
      "à°¬à°Ł": 541,
      "à°¡à°®": 542,
      "à°µà°¸": 543,
      "Ġà°Ĩà°¦": 544,
      "à±ģ!\"": 545,
      "Ġà°¤à°¨à°¨": 546,
      "à°ķà°¸": 547,
      "Ġà°Ĳ": 548,
      "à°ĥ": 549,
      "à°µà°®": 550,
      "à°ħà°µ": 551,
      "à°ķà°ķ": 552,
      "à°²à°°": 553,
      "Ġà°Ĭà°°": 554,
      "à°µà°ķ": 555,
      "Ġà°¶à°ķ": 556,
      "à°Ĺà°°à°ķ": 557,
      "Ġà°ħà°§": 558,
      "à°°à°Ń": 559,
      "à°Ńà°µ": 560,
      "à°µà°²à°¸": 561,
      "Ġà°Ľ": 562,
      "à°®à°¤": 563,
      "à±Ģ.": 564,
      "Ġà°¬à°¯à°Łà°ķ": 565,
      "à°Ĵ": 566,
      "à°Ĺà°¨": 567,
      "Ġà°¬à°²": 568,
      "à°¾...": 569,
      "Ġà°¶à°°": 570,
      "à°ªà°¦": 571,
      "à±ĭ!": 572,
      "Ġà°İà°¤": 573,
      "à°®à°Ĺ": 574,
      "à°¦à°Ĺ": 575,
      "Ġà°ħà°¬": 576,
      "à±į...": 577,
      "Ġà°ķà°·": 578,
      "à°¿!\"": 579,
      "Ġà°µà°²": 580,
      "à°¯à°¦": 581,
      "à°®à°¦": 582,
      "Ġà°¶à°¤": 583,
      "à°Ĺà°µ": 584,
      "Ġà°Ĵà°ķà°Ł": 585,
      "Ġà°ıà°°": 586,
      "à°ľà°°": 587,
      "à°Ĥ!": 588,
      "à°®à°£": 589,
      "à±į!\"": 590,
      "à°¹à°¸": 591,
      "Ġà°ļà°²": 592,
      "Ġà°ĩà°·": 593,
      "Ġà°Ĵà°ķà°°": 594,
      "à°¯à°Ĺ": 595,
      "à°¨à°¸": 596,
      "à°·à°²": 597,
      "à°µà°¯": 598,
      "Ġà°Ĩà°¤": 599,
      "à°ľà°¯": 600,
      "à°§à°°": 601,
      "à°¡à°¡": 602,
      "Ġà°Ĩà°¸": 603,
      "Ġà°¬à°¯à°²": 604,
      "à°ļà°¯": 605,
      "à°ħà°¯": 606,
      "à°¡à°¤": 607,
      "Ġà°ĩà°Ł": 608,
      "à°²à°ª": 609,
      "à°·à°®": 610,
      "à°¹à°°": 611,
      "à°ªà°®": 612,
      "à°¾....": 613,
      "à°¦à°¯": 614,
      "à°³à°¤": 615,
      "à°£à°®": 616,
      "ĊĊčĊ": 617,
      "à±Ĩ.": 618,
      "Ġà°ªà°²": 619,
      "Ġà°īà°ª": 620,
      "à°ĸà°°": 621,
      "à°Ĺà°¦": 622,
      "à±į....": 623,
      "à°ħà°¨": 624,
      "Ġà°Ĩà°ķ": 625,
      "à°¹à°²": 626,
      "à±ģ.....": 627,
      "à°¸à°¨": 628,
      "Ġà°Ĺà°Ł": 629,
      "Ġà°Ĺà°®à°¨": 630,
      "à°ļà°¨à°²": 631,
      "Ġ(": 632,
      "Ġà°µà°°à°ķ": 633,
      "Ġà°ľà°¯": 634,
      "à°¤à°ª": 635,
      "à°ħà°²": 636,
      "Ġà°ļà°ķ": 637,
      "à°¹à°¨": 638,
      "à°¤à°¯": 639,
      "à°Łà°ª": 640,
      "Ġà°ľà°µ": 641,
      "Ġà°¯à°ľ": 642,
      "à°§à°¨": 643,
      "à°¤à°µà°°à°ķ": 644,
      "à°µà°Ĺ": 645,
      "Ġà°ķà°®": 646,
      "à°¸à°®": 647,
      "Ġà°ħà°¶": 648,
      "Ġà°ļà°°": 649,
      "ĠĠĠ": 650,
      "Ġà°ļà°ª": 651,
      "Ġà°İà°°": 652,
      "Ġà°ħà°µà°ķ": 653,
      "Ġà°ħà°µà°¸à°°": 654,
      "à°£à°¯": 655,
      "Ġà°¹à°°": 656,
      "à°°à°§": 657,
      "Ġà°Ĩà°Ł": 658,
      "à°¿.....": 659,
      "Ġ2": 660,
      "à°ķà°¦": 661,
      "à°¤à°¸": 662,
      "à°§à°ªà°¡": 663,
      "Ġà°ķà°¨à°¬à°¡": 664,
      "à°¤à°µ": 665,
      "à±ĩ....": 666,
      "Ġà°¬à°Ł": 667,
      "Ġà°¸à°®à°¸": 668,
      "Ġà°īà°¦à°¯": 669,
      "à±ĩ\"": 670,
      "à°ī": 671,
      "Ġà°ĭ": 672,
      "à°ĵ": 673,
      "čĊĠč": 674,
      "à°¯à°£": 675,
      "Ġà°¸à°¨": 676,
      "à°ĩà°¦": 677,
      "Ġà°¤à°¡": 678,
      "Ġà°ĸà°°": 679,
      "Ġà°µà°¯à°¸": 680,
      "à°ħà°®": 681,
      "Ġà°ķà°¥": 682,
      "à°¶à°¨": 683,
      "Ġ,": 684,
      "à°¯à°ª": 685,
      "à°Ĺà°Ł": 686,
      "à°Ĺà°¡": 687,
      "Ġà°ªà°¤": 688,
      "Ġà°®à°¨à°ķ": 689,
      "à°°à°µà°°": 690,
      "à°Łà°¡": 691,
      "à°Ĺà°¬": 692,
      "Ġà°Ĺà°°": 693,
      "à±ĩ...": 694,
      "Ġ....": 695,
      "Ġà°ķà°¡": 696,
      "Ġà°ĩà°¸": 697,
      "à±į?\"": 698,
      "à±Įà°Ĥ": 699,
      "à°Łà°²à°ķ": 700,
      "à°Ľ": 701,
      "à°¡à°¤à°¨": 702,
      "Ġà°Ĭà°¹": 703,
      "à°ķà°¤": 704,
      "Ġà°ķà°¸": 705,
      "Ġà°īà°²": 706,
      "à°¤à°¤": 707,
      "Ġà°Ĩà°¹": 708,
      "à°ķà°Ĺ": 709,
      "à°ľà°ķ": 710,
      "à°Łà°¯": 711,
      "Ġ__": 712,
      "à±Ĥ?\"": 713,
      "Ġà°ļà°ļ": 714,
      "Ġà°°à°µ": 715,
      "Ġà°¤à°¯": 716,
      "Ġà°¬à°¸": 717,
      "ĠĠĠĠĠĠĠĠĠĠĠĠ": 718,
      "Ġà°İà°Ĺ": 719,
      "Ġà°¨à°°": 720,
      "Ġà°§à°°": 721,
      "à°Łà°ªà°¡": 722,
      "à°§à°µ": 723,
      "à°ĩà°ª": 724,
      "Ġà°Ĩà°¡à°ª": 725,
      "à°Ĵà°ķ": 726,
      "Ġà°Ĺà°¬": 727,
      "à°ļà°Ĺà°²": 728,
      "à°¬à°²": 729,
      "Ġà°İà°Ł": 730,
      "Ġà°¬à°¹": 731,
      "Ġà°ĺ": 732,
      "Ġà°ļà°¨": 733,
      "à°³à°®": 734,
      "à°¤à°Ł": 735,
      "Ġà°ķà°ª": 736,
      "Ġà°¨à°ļ": 737,
      "à°°à°Ł": 738,
      "à±ģ'": 739,
      "à°¡à°¯": 740,
      "à°Ĥ\"": 741,
      "à°¶à°¬": 742,
      "à±ĩ!\"": 743,
      "à°¥à°®": 744,
      "à°¾à°Ĥ\"": 745,
      "à±ĭ...": 746,
      "Ġà°¶à°¬": 747,
      "à±ģ...\"": 748,
      "à°ªà°Ĺ": 749,
      "à°¶à°ķ": 750,
      "Ġà°¥": 751,
      "à±į'": 752,
      "à°ªà°·": 753,
      "Ġà°¦à°°": 754,
      "Ġ:": 755,
      "Ġà°Ĩà°¯": 756,
      "à°ķà°¯": 757,
      "à°¯à°Ĺà°²": 758,
      "à°Ĥ?": 759,
      "à°Ĥ...": 760,
      "Ġà°®à°®": 761,
      "à°¹à°®": 762,
      "Ġà°Ńà°¯à°ªà°¡": 763,
      "à°¡à°ª": 764,
      "Ġà°®à°¤": 765,
      "Ġà°Ĵà°ª": 766,
      "à°Ĳ": 767,
      "Ġà°°à°®": 768,
      "Ġ3": 769,
      "à°İà°µà°°": 770,
      "Ġà°¤à°ķ": 771,
      "Ġà°¤à°Ł": 772,
      ".....\"": 773,
      "Ġ.": 774,
      "Ġà°¹à°¤": 775,
      "Ġà°ħà°²à°µ": 776,
      "à°¨à°¡": 777,
      "à°²à°¦": 778,
      "à°Łà°µ": 779,
      "à±Ģ...": 780,
      "à±ĩ-": 781,
      "à°ªà°²à°ķ": 782,
      "Ġà°ķà°¬": 783,
      "à°§à°¤": 784,
      "à°Ĥ....": 785,
      "à±Ģ!\"": 786,
      "Ġà°Ĺà°¤": 787,
      "à°¶à°®": 788,
      "Ġà°¯à°ľà°®": 789,
      "Ġà°Ĭà°ª": 790,
      "à±ĭ\"": 791,
      "à°µà°ª": 792,
      "à°¨à°¤": 793,
      "Ġà°ªà°¸": 794,
      "Ġà°®à°Ĺ": 795,
      "à°¿...\"": 796,
      "à°ģ": 797,
      "à°Ĥ?\"": 798,
      "à°°à°ļ": 799,
      "à°µà°¤à°²": 800,
      "à°²à°¸": 801,
      "à°¯à°®à°¨": 802,
      "à°ļà°Ĺ": 803,
      "à°²à°¬": 804,
      "à°¢": 805,
      "à°°à°¦à°°": 806,
      "à°Łà°Ł": 807,
      "Ġà°¬à°¤": 808,
      "ĠčĊĠčĊ": 809,
      "Ġà°°à°¹à°¸": 810,
      "à°ŀà°®": 811,
      "à°Ĭ": 812,
      "Ġ|": 813,
      "Ġà°®à°²": 814,
      "Ġà°ļà°Ł": 815,
      "Ġ...": 816,
      "Ġà°ªà°°à°®": 817,
      "à±ģ....\"": 818,
      "à°·à°°": 819,
      "Ġà°ıà°ķ": 820,
      "Ġà°¶à°¶": 821,
      "à°¿'": 822,
      "à°¾-": 823,
      "Ġà°ħà°ļ": 824,
      "Ġà°ħà°£": 825,
      "à°¦à°¸": 826,
      "Ġà°ĩà°°à°µ": 827,
      "Ġà°Ĵà°ķà°¸": 828,
      "à°³à°¯": 829,
      "Ġà°ªà°ļ": 830,
      "à°·à°¸": 831,
      "Ġà°«à°°": 832,
      "à±ģà°ĥ": 833,
      "à°µà°£": 834,
      "Ġà°¨à°µà°²": 835,
      "à±ĭ....": 836,
      "à±Ģ\"": 837,
      "Ġà°īà°°": 838,
      "à°¾.\"": 839,
      "Ġà°ķà°µ": 840,
      "Ġà°ķà°¦à°²": 841,
      "Ġà°Ĺà°¬à°Ĺà°¬": 842,
      "Ġà°Ĩà°§": 843,
      "à°·à°ķ": 844,
      "à°§à°ķ": 845,
      "à°ķà°µ": 846,
      "à±Ģ....": 847,
      "à°µà°°à°Ĺ": 848,
      "à°Ĥ-": 849,
      "à°¦à°¡": 850,
      "à±ĩ?\"": 851,
      "Ġà°Ĩà°¡à°¦": 852,
      "Ġà°İà°¡": 853,
      "Ġà°«à°²": 854,
      "Ġ5": 855,
      "Ġà°¸à°²": 856,
      "Ġà°°à°®à°£": 857,
      "à°¹à°¤": 858,
      "Ġà°Ĩà°²à°¸": 859,
      "Ġà°§à°¨à°®": 860,
      "à°ħà°¤à°¨": 861,
      "à°¦à°ªà°¡": 862,
      "Ġà°ĩà°°": 863,
      "Ġà°®à°¦": 864,
      "à±Ĥ?": 865,
      "Ġà°¸à°®à°°": 866,
      "Ġà°§à°¨": 867,
      "à±Ĥ!\"": 868,
      "à°Łà°¬": 869,
      "à°İà°ķ": 870,
      "à°²à°ļ": 871,
      "à±Ģ?\"": 872,
      "à±ĥà°Ĥ": 873,
      "à±ĩ?": 874,
      "Ġà°ħà°¹": 875,
      "Ġà°²à°Ń": 876,
      "à°µà°°à°£": 877,
      "à±į-": 878,
      "à±ĭ?": 879,
      "Ġà°µà°¡": 880,
      "Ġà°¬à°²à°µ": 881,
      "Ġà°ľà°²": 882,
      "Ġ4": 883,
      "Ġà°¸à°µ": 884,
      "Ġà°ħà°¨à°¡": 885,
      "Ġà°ıà°µ": 886,
      "Ġà°īà°ªà°¯": 887,
      "Ġà°Ĩà°ªà°°": 888,
      "à°ħà°¬": 889,
      "à°ķà°¡à°ķ": 890,
      "à°ĺà°Łà°¨": 891,
      "Ġà°¨à°®à°¸": 892,
      "à°¿....\"": 893,
      "à°Ĺà°°à°Ĺ": 894,
      "à°·à°¨à°°": 895,
      "à°®à°¬": 896,
      "Ġà°¦à°¯": 897,
      "à°°à°ľà°²": 898,
      ".\"": 899,
      "à±į?": 900,
      "à°¯à°¬": 901,
      "Ġà°¬à°°": 902,
      "Ġà°¯à°¶": 903,
      "Ġà°ħà°µà°¸": 904,
      "à°¸à°Ĺ": 905,
      "Ġà°¨à°Ł": 906,
      "à±Ģà°Ĥ": 907,
      "Ġà°²à°¤": 908,
      "Ġà°®à°°à°£": 909,
      "Ġà°ªà°Ĺ": 910,
      "Ġà°İà°¸": 911,
      "Ġà°¬à°¯à°Łà°ªà°¡": 912,
      "à±Ģ?": 913,
      "Ġà°µà°£": 914,
      "à°·à°¯à°®": 915,
      "Ġà°İà°®": 916,
      "čĊĠčĊĠĠĠĠĠĠĠĠĠĠĠĠĠĠĠĠ": 917,
      "à±ĭ!\"": 918,
      "à°°à°°": 919,
      "à±ĭ-": 920,
      "Ġà°ªà°³": 921,
      "Ġà°®à°¸": 922,
      "čĊĠĠ": 923,
      "à°¥à°²": 924,
      "à°°à°¬": 925,
      "à°®à°µ": 926,
      "Ġà°ħà°°à°Ĺ": 927,
      "à°İà°²": 928,
      "à°¾.....": 929,
      "à°®à°§": 930,
      "à°ļà°¦": 931,
      "Ġà°¹à°µ": 932,
      "à°¾...\"": 933,
      "à±Ĥ...": 934,
      "Ġà°¬à°¦": 935,
      "Ġà°¹à°ł": 936,
      "Ġà°Ĩà°¯à°¨à°ķ": 937,
      "à°ķà°³": 938,
      "Ġà°ªà°¶": 939,
      "Ġà°¤à°¨à°²": 940,
      "Ġà°Ńà°µ": 941,
      "à±Ĥ\"": 942,
      "Ġà°Ĺà°²": 943,
      "à°Ńà°°": 944,
      "Ġà°ħà°µà°¤à°²": 945,
      "Ġà°¬à°²à°®": 946,
      "Ġà°Ĵà°³": 947,
      "à±į.\"": 948,
      "Ġà°ĭà°·": 949,
      "à°³à°¡": 950,
      "Ġà°Ĩà°¡à°µ": 951,
      "à°§à°Ĺ": 952,
      "Ġà°ħà°¬à°¦": 953,
      "à°²à°Ł": 954,
      "à°³à°¦": 955,
      "Ġà°¸à°Ĺ": 956,
      "à°§à°²": 957,
      "à°Ńà°®": 958,
      "à°ħà°°": 959,
      "Ġ_": 960,
      "Ġč": 961,
      "à°²à°¡": 962,
      "à°¤à°¡": 963,
      "à°ľà°²": 964,
      "à°ĸà°®": 965,
      "à°°à°£à°®": 966,
      "à°Ĩà°®": 967,
      "Ġ19": 968,
      "à°¯à°ªà°¡": 969,
      "Ġà°¦à°ķ": 970,
      "Ġà°¶à°°à°¤": 971,
      "à°ħà°ª": 972,
      "à°²à°ķà°°": 973,
      "à°¸à°¹": 974,
      "Ġà°¶à°µ": 975,
      "à°¦à°°à°Ĺ": 976,
      "Ġà°Ĭà°³": 977,
      "Ġà°ħà°¸à°¹": 978,
      "à°Ĺà°¯": 979,
      "à°Łà°Ĺ": 980,
      "à°ªà°¯": 981,
      "à°ªà°ļ": 982,
      "à±Ĥ....": 983,
      "Ġà°Ĩà°ĸà°°": 984,
      "Ġà°°à°ĺ": 985,
      "Ġà°Ĺà°£": 986,
      "Ġà°İà°¯": 987,
      "Ġà°ķà°²à°²": 988,
      "Ġ.....": 989,
      "à°±": 990,
      "Ġ6": 991,
      "à±į...\"": 992,
      "à°¡à°¦à°¨": 993,
      "à°µà°²à°¨": 994,
      "à°Ĺà°ľ": 995,
      "Ġà°¨à°ķ": 996,
      "à±ģ......": 997,
      "à°·à°£à°®": 998,
      "Ġà°Īà°¸": 999,
      "à°ĩà°ķ": 1000,
      "à°¡à°¬": 1001,
      "à°ļà°¬à°¡": 1002,
      "Ġà°ħà°¡à°µ": 1003,
      "à°ªà°µ": 1004,
      "à°µà°¸à°°": 1005,
      "à°ļà°µà°²": 1006,
      "Ġà°ķà°¤": 1007,
      "Ġà°ķà°®à°²": 1008,
      "Ġà°®à°Ĺà°µ": 1009,
      "à°ľà°¸": 1010,
      "à°ļà°¸": 1011,
      "Ġà°µà°¨": 1012,
      "Ġà°µà°²à°¨": 1013,
      "Ġà°µà°¦à°²": 1014,
      "à°Ńà°¯": 1015,
      "à°¤à°¦": 1016,
      "à°¡à°¸": 1017,
      "à°·à°¤": 1018,
      "Ġà°ħà°µà°¸à°°à°®": 1019,
      "--": 1020,
      "à°¾'": 1021,
      "Ġà°¨à°·": 1022,
      "à°°à°£à°¯": 1023,
      "Ġ7": 1024,
      "Ġà°ĩà°¤à°¨": 1025,
      "Ġà°ĵà°ª": 1026,
      "Ġ?": 1027,
      "à°Ĥ!\"": 1028,
      "Ġà°Īà°°": 1029,
      "à±ģ\".": 1030,
      "à°®à°Ł": 1031,
      "à°Ĺà°ķ": 1032,
      "à°Ĺà°³": 1033,
      "Ġà°ªà°µ": 1034,
      "Ġà°ıà°®à°¨": 1035,
      "Ġà°ħà°°à°µ": 1036,
      "Ġà°¸à°°à°¸": 1037,
      "Ġ?\"": 1038,
      "Ġà°¦à°¶": 1039,
      "Ġà°Ńà°°à°¤": 1040,
      "à°ħà°ķ": 1041,
      "Ġà°ħà°µà°®": 1042,
      "à°¬à°¤": 1043,
      "Ġà°ľà°²à°®": 1044,
      "Ġà°¹à°¨": 1045,
      "Ġà°Ĳà°¦": 1046,
      "à°Łà°¦": 1047,
      "Ġà°ħà°ľ": 1048,
      "Ġà°Ĩà°ķà°²": 1049,
      "Ġà°°à°ļà°¯": 1050,
      "Ġà°ķà°¨à°ªà°¡": 1051,
      "Ġ9": 1052,
      "à±į.....": 1053,
      "à°¦à°¦": 1054,
      "à°Łà°¸": 1055,
      "à°¯à°¶": 1056,
      "Ġà°¨à°¦": 1057,
      "Ġà°ħà°¨à°µà°¸à°°": 1058,
      "Ġà°Ńà°Ĺà°µ": 1059,
      "Ġà°Ĵà°ķà°µ": 1060,
      "à°ļà°®": 1061,
      "à±Ĥ-": 1062,
      "Ġà°¸à°²à°¹": 1063,
      "à°¨à°¬à°¡": 1064,
      "à°ªà°¬": 1065,
      "Ġà°°à°ķà°°à°ķ": 1066,
      "à±ģ)": 1067,
      "à°¯à°ľ": 1068,
      "Ġà°¸à°Ń": 1069,
      "Ġà°ĩà°¬": 1070,
      "à°ħà°¸à°²": 1071,
      "Ġà°ħà°¯à°¨": 1072,
      "Ġà°ħà°ªà°°": 1073,
      "Ġà°®à°Ł": 1074,
      "..\"": 1075,
      "Ġà°²à°²": 1076,
      "à°«à°°": 1077,
      "Ġà°¢": 1078,
      "Ġà°ł": 1079,
      "à°¦à°¤": 1080,
      "à°¦à°¬": 1081,
      "Ġà°Ńà°ķ": 1082,
      "à°Ĥ.\"": 1083,
      "à°²à°ľ": 1084,
      "à°¦à°°à°®": 1085,
      "Ġ:-": 1086,
      "à°¯à°¬à°¡": 1087,
      "Ġà°¤à°²à°¨": 1088,
      "Ġà°Ĵà°¡": 1089,
      "Ġà°®à°°à°²": 1090,
      "à±ĩ.\"": 1091,
      "Ġ8": 1092,
      "à°¡à°µà°ļ": 1093,
      "à°·à°Ĺ": 1094,
      "Ġà°Ĺà°¨": 1095,
      "Ġà°ħà°®à°°": 1096,
      "à°ªà°°à°ļ": 1097,
      "à°²à°²à°ķ": 1098,
      "Ġà°°à°¥à°®": 1099,
      "Ġà°ıà°®à°¯": 1100,
      "à°¯à°µà°¹": 1101,
      "Ġ||": 1102,
      "à±¦": 1103,
      "à°ķà°°à°®": 1104,
      "à°¤à°²à°ķ": 1105,
      "à±ĩ.....": 1106,
      "à°ªà°Ĺà°²": 1107,
      "Ġà°ķà°µà°°": 1108,
      "Ġà°¸à°¦": 1109,
      "Ġà°Īà°ľ": 1110,
      "à°ĺà°µ": 1111,
      "à°²à°Ń": 1112,
      "à°®à°ļ": 1113,
      "Ġà°ħà°¹à°²": 1114,
      "Ġà°ķà°ķ": 1115,
      "à°İà°¸": 1116,
      "à°°à°ªà°¡": 1117,
      "à°¦à°ª": 1118,
      "à±Ģ.....": 1119,
      "čĊčĊ": 1120,
      "Ġà°¨à°Ĺ": 1121,
      "Ġà°¹à°¡": 1122,
      "Ġà°ħà°¡à°Ĺ": 1123,
      "Ġà°ľà°°à°Ĺ": 1124,
      "à°¯à°µà°²": 1125,
      "à°ļà°°à°£": 1126,
      "Ġà°ªà°²à°ķà°°": 1127,
      "à°³à°µ": 1128,
      "Ġà°¸à°¬": 1129,
      "Ġà°īà°ķ": 1130,
      "Ġà°®à°°à°ļ": 1131,
      "Ġà°¤à°²à°µ": 1132,
      "Ġà°ķà°²à°¸": 1133,
      "à°ıà°¦": 1134,
      "à°Ĩà°°": 1135,
      "____": 1136,
      "Ġà°·à°°": 1137,
      "à°°à°¬à°¡": 1138,
      "à°£à°µ": 1139,
      "à°°à°¥": 1140,
      "à°®à°ª": 1141,
      "à°®à°³": 1142,
      "à°¸à°¤": 1143,
      "Ġà°¤à°¨à°¤": 1144,
      "Ġà°®à°¨à°®": 1145,
      "Ġà°¤à°²à°ª": 1146,
      "à±ĩà°Ĥ?": 1147,
      "Ġà°¸à°°à°¦": 1148,
      "à°°à°¡": 1149,
      "à°ªà°£": 1150,
      "à°¸à°ķ": 1151,
      "Ġà°Ĩà°ľ": 1152,
      "Ġà°Ńà°¦": 1153,
      "à°°à°ķà°Ł": 1154,
      "à°¯à°®à°¯": 1155,
      "à°µà°¡à°®": 1156,
      "à°ªà°¬à°¡": 1157,
      "Ġà°«à°¸": 1158,
      "à±ģ__": 1159,
      "à°¨à°ļ": 1160,
      "Ġà°¨à°Ĺà°°": 1161,
      "Ġà°¤à°²à°ķ": 1162,
      "Ġà°Ĩà°ķà°°": 1163,
      "à°µà°°à°²": 1164,
      "à°ķà°°à°²": 1165,
      "ĠĠĠĠĠĠĠĠĠĠĠĠĠĠĠĠĠĠĠĠĠĠĠĠĠĠĠĠĠĠĠĠ": 1166,
      "à°¯à°µà°¸": 1167,
      "Ġà°¬à°²à°¹": 1168,
      "à°¸à°¯": 1169,
      "à°ļà°µà°ļ": 1170,
      "Ġà°Ĩà°¦à°°": 1171,
      "à°ľà°¨à°°": 1172,
      "à±ĭ?\"": 1173,
      "à°¯à°µà°ļ": 1174,
      "à°ļà°¬": 1175,
      "à°ļà°®à°¨": 1176,
      "ĊčĊĠ": 1177,
      "à°ķà°¡à°¨": 1178,
      "à°¡à°Ĺà°²": 1179,
      "à°µà°µ": 1180,
      "à±Ģ-": 1181,
      "Ġà°µà°³": 1182,
      "Ġà°ĩà°³": 1183,
      "Ġà°¹à°¸": 1184,
      "à±ĩà°Ĥ?\"": 1185,
      "Ġà°§à°°à°£": 1186,
      "à°ĩà°²": 1187,
      "Ġà°¸à°¹à°ľ": 1188,
      "Ġà°Ĳà°¶": 1189,
      "à°Ĵà°°": 1190,
      "Ġà°£": 1191,
      "à°¤à°ķà°¨": 1192,
      "à°µà°¶": 1193,
      "à°®à°¹": 1194,
      "Ġà°Ĩà°ļ": 1195,
      "Ġà°ĩà°µà°¨": 1196,
      "Ġà°ħà°²à°¸": 1197,
      "à°¦à°²à°¯": 1198,
      "à°²à°µà°²": 1199,
      "à°¤à°ľ": 1200,
      "à°ļà°ķà°ª": 1201,
      "à°ĩà°¨": 1202,
      "à°Ĩà°¯à°¨": 1203,
      "à°²à°®à°¯": 1204,
      "ĊĊčĊĠ": 1205,
      "à°¾....\"": 1206,
      "à°¯à°ļ": 1207,
      "Ġà°¸à°ķ": 1208,
      "à°§à°¸": 1209,
      "Ġà°ľà°Ĺà°¨": 1210,
      "à°¾à°Ĥ!": 1211,
      "Ġà°Ĵà°°": 1212,
      "Ġà°¤à°¨à°®": 1213,
      "à°¥à°ķ": 1214,
      "Ġà°ķà°²à°µà°°": 1215,
      "Ġà°ļà°²à°ªà°¤": 1216,
      "à±į....\"": 1217,
      "à°¨à°ªà°¡": 1218,
      "à°¡à°µà°²": 1219,
      "à°Łà°²à°¨": 1220,
      "à°µà°¤à°®": 1221,
      "à°¸à°µ": 1222,
      "Ġà°®à°¯": 1223,
      "Ġà°¤à°¦": 1224,
      "à°§à°®à°¯": 1225,
      "ĠčĊĠ": 1226,
      "Ġà°®à°¨à°²": 1227,
      "Ġà°ħà°®à°²": 1228,
      "à°¿......": 1229,
      "à°¯à°²à°ķ": 1230,
      "Ġà°µà°ľ": 1231,
      "à°¶à°²": 1232,
      "Ġà°¯à°®": 1233,
      "Ġà°Īà°²": 1234,
      "à°·à°£à°ķ": 1235,
      "Ġà°ªà°¦à°ķ": 1236,
      "à°°à°µà°¹": 1237,
      "à°Ĥ.....": 1238,
      "à±ĩ...\"": 1239,
      "à°Łà°¤": 1240,
      "à°µà°Ń": 1241,
      "Ġà°¤à°®à°ķ": 1242,
      "Ġà°ľà°¡": 1243,
      "Ġà°ıà°³": 1244,
      "Ġà°Ńà°¯à°®": 1245,
      "à°¥à°°": 1246,
      "Ġà°ªà°¡à°ķ": 1247,
      "Ġà°®à°¹à°¤": 1248,
      "à±ģ_": 1249,
      "à°¡à°ķà°ª": 1250,
      "à°Ĺà°²à°¨": 1251,
      "Ġà°µà°¶": 1252,
      "čĊĠĠĠ": 1253,
      "Ġà°Ĺà°ľ": 1254,
      "à°¾?'": 1255,
      "à°°à°¸à°¨": 1256,
      "à°ļà°¨à°Ĺ": 1257,
      "___": 1258,
      "Ġà°ķà°¥à°²": 1259,
      "ĠĠĠĠĠĠĠĠĠĠĠĠĠ": 1260,
      "à°Ĥ'": 1261,
      "à°®à°¸": 1262,
      "Ġà°¬à°¡": 1263,
      "à°«à°²": 1264,
      "Ġà°ĵà°¡": 1265,
      "à°Ĺà°¸": 1266,
      "à°³à°¬": 1267,
      "Ġà°°à°·": 1268,
      "à°¶à°¯": 1269,
      "Ġà°ıà°¨": 1270,
      "Ġà°Īà°®": 1271,
      "à°ĩà°µ": 1272,
      "Ġà°ªà°¦à°µ": 1273,
      "à°¿.....\"": 1274,
      "à±ĭ.....": 1275,
      "à±ģ.....\"": 1276,
      "à°¬à°¯": 1277,
      "Ġà°īà°ļ": 1278,
      "à°®à°¨à°°": 1279,
      "Ġà°ħà°µà°¨": 1280,
      "à°¯à°ķà°ª": 1281,
      "à°İà°ª": 1282,
      "à°ķà°£": 1283,
      "Ġà°¨à°¯": 1284,
      "Ġà°ĩà°¹": 1285,
      "Ġà°İà°µà°¡": 1286,
      "à°§à°ª": 1287,
      "Ġà°Īà°µ": 1288,
      "à°¤à°®à°¯": 1289,
      "à°¾à°Ĥ.\"": 1290,
      "Ġ......": 1291,
      "Ġà°İà°µ": 1292,
      "čĊĠčĊĠĠ": 1293,
      "à°µà°¤à°²à°ķ": 1294,
      "Ġà°ħà°¸à°¹à°¨": 1295,
      "Ġà°ĸà°ļ": 1296,
      "à±ģ-\"": 1297,
      "ĠĊ": 1298,
      "à°¯à°Ń": 1299,
      "à°¯à°µà°²à°¸": 1300,
      "à°Ĺà°ª": 1301,
      "Ġà°µà°¹": 1302,
      "Ġà°µà°°à°¸": 1303,
      "Ġà°¤à°¤": 1304,
      "à°³à°Ł": 1305,
      "à°³à°Ĺ": 1306,
      "Ġà°ħà°¨à°ķ": 1307,
      "Ġà°¬à°¤à°ķ": 1308,
      "à°£à°¨": 1309,
      "Ġà°¹à°ķ": 1310,
      "Ġà°ĵà°¦": 1311,
      "Ġà°ĵà°¸": 1312,
      "à°Ĺà°²à°¡": 1313,
      "à°Ĺà°²à°µ": 1314,
      "Ġ10": 1315,
      "Ġà°Ĩà°¸à°ķ": 1316,
      "à°ķà°ļ": 1317,
      "Ġà°µà°¤": 1318,
      "à°³à°ª": 1319,
      "à°¶à°ª": 1320,
      "Ġà°ľà°¸": 1321,
      "Ġà°ľà°¬": 1322,
      "Ġà°ķà°²à°°": 1323,
      "à°İà°¨": 1324,
      "Ġ11": 1325,
      "ĠĠĠĠĠĠĠĠĠĠĠĠĠĠ": 1326,
      "in": 1327,
      "à°¦à°¤à°¨": 1328,
      "à°ªà°ľ": 1329,
      "Ġà°ªà°Ĺà°²": 1330,
      "à°·à°§": 1331,
      "Ġà°ĩà°¤à°°": 1332,
      "à°¦à°¨à°²": 1333,
      "à°Łà°²à°¤": 1334,
      "Ġà°Ĺà°£à°ªà°¤": 1335,
      "**": 1336,
      "à°µà°¹": 1337,
      "à°®à°¶": 1338,
      "Ġà°Ĺà°µà°°": 1339,
      "Ġà°ľà°ª": 1340,
      "Ġà°īà°®": 1341,
      "à°Ńà°¨": 1342,
      "à°Ńà°¦": 1343,
      "Ġà°Ĵà°ķà°¡": 1344,
      "à°¥à°¨": 1345,
      "Ġa": 1346,
      "Ġà°µà°§": 1347,
      "Ġà°ķà°²à°ķ": 1348,
      "Ġà°Ĩà°Łà°²": 1349,
      "à°²à°¨à°Ĺ": 1350,
      "Ġà°Ĩà°®à°¨": 1351,
      "Ġà°ķà°¨à°ķ": 1352,
      "à°·à°£à°²": 1353,
      "à°¯à°¡à°®": 1354,
      "Ġà°ĭà°¤": 1355,
      "à°¤à°¬": 1356,
      "Ġà°ħà°²à°ķ": 1357,
      "à±Ģ'": 1358,
      "Ġà°ªà°¬": 1359,
      "Ġà°®à°¡": 1360,
      "Ġà°¬à°ľ": 1361,
      "Ġà°²à°µ": 1362,
      "Ġà°ıà°¡à°µ": 1363,
      "à°°à°®à°°": 1364,
      "à°®à°¨à°¸": 1365,
      "Ġà°Łà°ķ": 1366,
      "Ġà°ªà°¡à°¤": 1367,
      "à°·à°¨à°²": 1368,
      "à°¦à°²à°ļ": 1369,
      "Ġà°µà°°à°¦à°°": 1370,
      "Ġ12": 1371,
      "à°®à°¡": 1372,
      "à°®à°¹à°¤": 1373,
      "à°¬à°ķ": 1374,
      "Ġà°°à°¤": 1375,
      "Ġà°ħà°¨à°²": 1376,
      "Ġà°ĩà°®": 1377,
      "à°§à°µà°°": 1378,
      "Ġà°īà°¸": 1379,
      "Ġà°Ĵà°¤": 1380,
      "Ġà°¤à°¨à°µ": 1381,
      "Ġà°ķà°²à°µ": 1382,
      "ĠĠĠĠĠĠĠĠĠĠĠ": 1383,
      "à°µà°Łà°®": 1384,
      "à°łà°ķ": 1385,
      "Ġà°°à°®à°£à°°": 1386,
      "à°°à°³": 1387,
      "à°®à°²à°ķ": 1388,
      "à°Ĺà°¤à°¨": 1389,
      "Ġà°ķà°§": 1390,
      "Ġà°®à°£": 1391,
      "Ġà°¨à°¡à°µ": 1392,
      "à°£à°ķ": 1393,
      "Ġà°ľà°®": 1394,
      "Ġà°Īà°¨": 1395,
      "à°ĸà°²": 1396,
      "à°°à°¤à°¦": 1397,
      "Ġà°ľà°¯à°ļ": 1398,
      "Ġà°Ŀ": 1399,
      "à°¿)": 1400,
      "à°¨à°¦à°¨": 1401,
      "à°°à°Łà°°": 1402,
      "à°°à°ªà°Ł": 1403,
      "à°ķà°¬": 1404,
      "à°¡à°ļ": 1405,
      "Ġà°ķà°ł": 1406,
      "Ġà°ļà°¸": 1407,
      "Ġà°¨à°°à°ķ": 1408,
      "Ġà°¸à°ķà°²": 1409,
      "Ġà°Ĵà°ķà°ª": 1410,
      "ĠĠĠĠĠĠĠĠĠĠ": 1411,
      "à°īà°¹": 1412,
      "Ġ....\"": 1413,
      "à°¨à°¬": 1414,
      "à°ªà°®à°¨": 1415,
      "à°Ĺà°£": 1416,
      "Ġà°®à°ļ": 1417,
      "Ġà°ļà°¤": 1418,
      "Ġà°¨à°¶": 1419,
      "Ġà°¸à°ª": 1420,
      "Ġà°ħà°¨à°¸": 1421,
      "à°ıà°¯": 1422,
      "00": 1423,
      "à°ªà°¸": 1424,
      "à°µà°³": 1425,
      "Ġà°µà°ķ": 1426,
      "Ġà°°à°¥": 1427,
      "Ġà°°à°ļà°¨à°²": 1428,
      "à°¶à°µà°°": 1429,
      "Ġà°İà°²à°ķ": 1430,
      "à°¾à°Ĥ!\"": 1431,
      "à°°à°®à°¯": 1432,
      "Ġà°¤à°²à°¤": 1433,
      "à°ķà°°à°£": 1434,
      "à°ĩà°Ł": 1435,
      "Ġà°Ĭà°Ĺ": 1436,
      "à°°à°Ĺà°¡": 1437,
      "Ġà°¨à°²à°Ń": 1438,
      "à°¿-\"": 1439,
      "à°±à°ķ": 1440,
      "à°ķà°ľ": 1441,
      "à±ĩ'": 1442,
      "à°µà°¬": 1443,
      "à°¯à°µà°¤": 1444,
      "à°¸à°Ł": 1445,
      "à°ļà°µ": 1446,
      "à±ģ.)": 1447,
      "Ġà°¸à°µà°°": 1448,
      "ĊčĊĠĠ": 1449,
      "Ġà°ħà°¨à°¬": 1450,
      "Ġà°īà°ľ": 1451,
      "à°°à°ķà°²": 1452,
      "à°°à°¤à°ķ": 1453,
      "à°Ĺà°²à°¦": 1454,
      "Ġà°ıà°¦à°¯": 1455,
      "à°¡à°µà°Ĺ": 1456,
      "Ġà°µà°°à°²": 1457,
      "Ġà°®à°¹à°°": 1458,
      "à±ĭ.\"": 1459,
      "à°ĵà°¹": 1460,
      "Ġà°¨à°µà°²à°²": 1461,
      "Ġ!\"": 1462,
      "à°¿__": 1463,
      "à°¨à°¤à°¨": 1464,
      "à°®à°Łà°²": 1465,
      "à°Ĺà°ªà°¡": 1466,
      "à°ļà°µà°²à°¸": 1467,
      "Ġà°ħà°ĸ": 1468,
      "à±Ĥ.....": 1469,
      "à°¬à°¨": 1470,
      "à±Ī,": 1471,
      "Ġà°ľà°Ĺ": 1472,
      "Ġà°īà°¡": 1473,
      "Ġà°¯à°¸": 1474,
      "à°°à°®à°¨": 1475,
      "Ġà°¤à°²à°²": 1476,
      "Ġà°¸à°®à°ķ": 1477,
      "Ġà°ĵà°°": 1478,
      "Ġà°ħà°ķà°¸": 1479,
      "à°ļà°¨à°²à°¤": 1480,
      "à°³à°¨à°Ĺ": 1481,
      "Ġà°¤à°¡à°¬à°¡": 1482,
      "à°¨à°¤à°²": 1483,
      "à°Łà°®à°¨": 1484,
      "à±Ĩ,": 1485,
      "à°¬à°¦": 1486,
      "Ġà°Ĺà°®": 1487,
      "à°ľà°¡": 1488,
      "Ġà°¦à°Ł": 1489,
      "Ġà°¦à°¬": 1490,
      "à°Ńà°ķ": 1491,
      "Ġà°¯à°§": 1492,
      "à°ħà°¡": 1493,
      "Ġà°ħà°°à°ļ": 1494,
      "Ġà°ħà°°à°£": 1495,
      "Ġà°§à°¨à°µ": 1496,
      "Ġà°Ĩà°¶à°²": 1497,
      "à°¯à°²à°¨": 1498,
      "à°ļà°ª": 1499,
      "Ġà°µà°Ĺ": 1500,
      "Ġà°ķà°£": 1501,
      "à±Ĥ...\"": 1502,
      "Ġà°¤à°µ": 1503,
      "Ġà°¬à°¨": 1504,
      "à°§à°¨à°²": 1505,
      "Ġà°Ĵà°ķà°ļ": 1506,
      "Ġà°®à°¨à°¦": 1507,
      "Ġà°Īà°¡": 1508,
      "à°¤à°®à°Ĺ": 1509,
      "à°°à°¹à°¸": 1510,
      "Ġ14": 1511,
      "Ġ15": 1512,
      "à°¯à°µà°§": 1513,
      "čĊĠĠčĊ": 1514,
      "à±ģ:": 1515,
      "à°²à°²à°¨": 1516,
      "à°¤à°°à°®": 1517,
      "à°¡à°®à°¨": 1518,
      "à°Ĺà°Ĺ": 1519,
      "à°¸à°ª": 1520,
      "Ġà°ªà°ª": 1521,
      "Ġà°¤à°Ĺà°²": 1522,
      "Ġà°Ĩà°µà°°": 1523,
      "à°·à°µ": 1524,
      "Ġà°īà°·": 1525,
      "Ġà°Ĵà°¦": 1526,
      "......": 1527,
      "à°°à°®à°¤": 1528,
      "à°Ĺà°°à°¨": 1529,
      "Ġà°ľà°°à°Ĺà°¬": 1530,
      "Ġ!!": 1531,
      "Ġt": 1532,
      "à°¿_": 1533,
      "à°ķà°²à°¨": 1534,
      "à±ĩ....\"": 1535,
      "à°¸à°¨à°²": 1536,
      "Ġà°ªà°¥à°ķ": 1537,
      "à°·à°ª": 1538,
      "à°¬à°²à°ķ": 1539,
      "ĊčĊĠčĊ": 1540,
      "Ġà°Ĺà°¨à°ķ": 1541,
      "Ġà°ħà°¨à°°": 1542,
      "à°§à°¨à°°": 1543,
      "à°¹à°°à°£": 1544,
      "Ġà°Ĵà°ķà°¨": 1545,
      "Ġà°¤à°²à°¦": 1546,
      "ĠĠĠĠĠĠĠĠĠ": 1547,
      "à°¨à°µà°¨": 1548,
      "Ġà°¤à°°à°ļ": 1549,
      "à°İà°®": 1550,
      "Ġà°ļà°¦à°µ": 1551,
      "Ġ13": 1552,
      "Ġà°Ĳà°¸": 1553,
      "à°¯à°£à°°": 1554,
      "Ġc": 1555,
      "à°¦à°®à°¯": 1556,
      "à°¤à°ªà°¡": 1557,
      "à°Ĺà°ļ": 1558,
      "Ġà°¸à°ľ": 1559,
      "Ġà°İà°¡à°®": 1560,
      "à°¹à°ķ": 1561,
      "à°¦à°°à°ªà°¡": 1562,
      "Ġà°ĵà°¨à°°": 1563,
      "à°¤à°¨à°ķ": 1564,
      "à°¨à°µà°¸à°°": 1565,
      "à°¨à°®à°¯": 1566,
      "à°µà°¤à°²à°¨": 1567,
      "à°°à°Ĺà°Ł": 1568,
      "à°°à°Ĺà°¬à°¡": 1569,
      "Ġà°Ĳà°¡": 1570,
      "Ġà°¦à°¶à°°à°¥": 1571,
      "on": 1572,
      "Ġà°Ķ": 1573,
      "à°ªà°ª": 1574,
      "Ġà°ħà°·": 1575,
      "à±Ģ...\"": 1576,
      "Ġà°®à°ķ": 1577,
      "čĊĠĠĠĠĠĠĠĠĠĠĠĠĠĠĠĠ": 1578,
      "Ġà°°à°¸": 1579,
      "ĊčĊĠĠĠĠĠĠĠĠĠĠĠĠĠĠĠĠ": 1580,
      "à°¶à°°": 1581,
      "à°¶à°µ": 1582,
      "Ġà°Ńà°Ĺ": 1583,
      "Ġà°Ńà°°à°¦": 1584,
      "Ġà°ħà°²à°ľà°¡": 1585,
      "à°¯à°¨à°®": 1586,
      "Ġà°ªà°¡à°Ł": 1587,
      "Ġà°ĵà°·à°§": 1588,
      "à°ıà°µ": 1589,
      "Ġà°İà°µà°°à°¯": 1590,
      "à°¿\".": 1591,
      "Ġà°ªà°¦à°¹": 1592,
      "à°¡à°²à°®": 1593,
      "Ġà°¸à°¹à°¨": 1594,
      "à°°à°ľà°²à°ķ": 1595,
      "Ġà°łà°ķ": 1596,
      "an": 1597,
      "he": 1598,
      "or": 1599,
      "à°Ĥ....\"": 1600,
      "à°°à°³à°¯": 1601,
      "à°¬à°®": 1602,
      "Ġà°ħà°¨à°Ĺ": 1603,
      "à°¹à°¦": 1604,
      "Ġà°ľà°¯à°¦": 1605,
      "Ġà°ľà°Ĺà°¦": 1606,
      "ĠĠĠĠĠĠ": 1607,
      "à°ħà°Ł": 1608,
      "Ġà°Īà°¯à°¨": 1609,
      "Ġà°¤à°²à°ļ": 1610,
      "Ġà°¨à°µà°¨": 1611,
      "à°°à°¸à°ķ": 1612,
      "à°ĺà°®": 1613,
      "à°ļà°¡à°®": 1614,
      "ĊĊčĊĠĠ": 1615,
      "Ġs": 1616,
      "à°ĭ": 1617,
      "à°¨à°²à°ķ": 1618,
      "à°°à°ĸ": 1619,
      "à°¤à°²à°¨": 1620,
      "à°Łà°ļ": 1621,
      "à°ªà°ķà°ª": 1622,
      "Ġà°ħà°«": 1623,
      "Ġà°¨à°°à°¸": 1624,
      "à°ľà°¯à°µ": 1625,
      "Ġà°²à°Ĺ": 1626,
      "à°£à°¸": 1627,
      "Ġà°īà°Ĺ": 1628,
      "ĠĠĠĠĠĠĠ": 1629,
      "à°ħà°Ń": 1630,
      "à°²à°ķà°¨": 1631,
      "à°²à°ķà°²": 1632,
      "à°°à°ķà°Łà°¨": 1633,
      "à°¯à°ķà°°": 1634,
      "Ġà°¤à°°à°µ": 1635,
      "à°ıà°¡": 1636,
      "Ġà°İà°µà°°à°¨": 1637,
      "Ġà°Ĭà°¡": 1638,
      "Ġà°ķà°¦à°²à°ķ": 1639,
      "à°ŀà°¤": 1640,
      "Ġà°¨à°¡à°ķ": 1641,
      "à±Ģ.\"": 1642,
      "Ġà°Ĩà°Łà°µ": 1643,
      "ĠĠĠĠĠĠĠĠĠĠĠĠĠĠĠ": 1644,
      "à°ĺà°Łà°¨à°²": 1645,
      "Ġà°µà°¨à°ľ": 1646,
      "à°¦à°ļ": 1647,
      "à±ĭ'": 1648,
      "à°ªà°¶": 1649,
      "à°ªà°µà°²à°¸": 1650,
      "à°¯à°¤à°¨": 1651,
      "à±Ĩ!": 1652,
      "à±Ģ....\"": 1653,
      "Ġà°®à°¦à°¨": 1654,
      "à°ľà°¶": 1655,
      "Ġà°¬à°ķ": 1656,
      "Ġà°Ĵà°ķà°¦": 1657,
      "à°¦à°°à°¦": 1658,
      "à°ħà°¤": 1659,
      "à°ħà°¤à°¡": 1660,
      "à°°à°®à°¦": 1661,
      "Ġà°¤à°²à°®": 1662,
      "à°¨à°µà°¤": 1663,
      "à°¨à°®à°¸": 1664,
      "Ġà°Ĩà°¶à°¯": 1665,
      "à°¦à°ķà°°à°®": 1666,
      "Ġà°ªà°°à°®à°¹": 1667,
      "Ġà°ħà°£à°ļ": 1668,
      "ou": 1669,
      "à±ģ;": 1670,
      "à°¨à°ķà°¨": 1671,
      "à°¦à°®à°¨": 1672,
      "à±ĭ...\"": 1673,
      "à°¯à°ªà°°": 1674,
      "à°ļà°²à°¨": 1675,
      "Ġà°µà°ª": 1676,
      "Ġà°ªà°µà°°": 1677,
      "Ġà°ļà°²à°®à°¯": 1678,
      "Ġà°¤à°®à°¨": 1679,
      "Ġà°¸à°¸": 1680,
      "Ġà°°à°ª": 1681,
      "Ġà°°à°ľà°¨": 1682,
      "Ġà°²à°¨": 1683,
      "à°£à°¤": 1684,
      "Ġà°¤à°¨à°¦": 1685,
      "Ġà°¤à°¨à°ª": 1686,
      "Ġà°Ńà°°à°£": 1687,
      "Ġà°«à°ķ": 1688,
      "Ġà°«à°£": 1689,
      "à°®à°¨à°ķ": 1690,
      "Ġà°ķà°²à°¦": 1691,
      "Ġà°ħà°µà°Ĺ": 1692,
      "Ġà°ªà°¡à°Ĺ": 1693,
      "Ġ''": 1694,
      "à°Ĩà°Ĺ": 1695,
      "Ġà°¬à°¯à°Łà°ª": 1696,
      "Ġà°¸à°¹à°ķà°°": 1697,
      "à°°à°Ĺà°¤": 1698,
      "à°Łà°¬à°¡": 1699,
      "à°¯à°¯": 1700,
      "à°ļà°ļ": 1701,
      "à°ľà°ª": 1702,
      "à°¾à°Ĥ...": 1703,
      "Ġà°ıà°ľ": 1704,
      "Ġà°Ńà°µà°¨": 1705,
      "à°²à°¨à°¨": 1706,
      "Ġà°Ĵà°ķà°³": 1707,
      "Ġà°¯à°µ": 1708,
      "Ġà°Īà°ª": 1709,
      "Ġà°Īà°¶": 1710,
      "Ġà°ħà°²à°²": 1711,
      "à°¤à°¨à°®": 1712,
      "à°Ĩà°²": 1713,
      "à°Ĩà°µ": 1714,
      "Ġà°Ĩà°¶à°Ĺ": 1715,
      "à°°à°¹à°°": 1716,
      "Ġ18": 1717,
      "à°µà°¸à°°à°®": 1718,
      "Ġà°ļà°ķà°ļà°ķ": 1719,
      "à°¬à°²à°ªà°¤": 1720,
      "Ġà°¤à°Łà°ªà°Ł": 1721,
      "!!": 1722,
      "te": 1723,
      "à°¿à°ĥ": 1724,
      "à°Ĥ__": 1725,
      "à°ķà°·": 1726,
      "à°¦à°²à°ķ": 1727,
      "à°¡à°µà°²à°¸": 1728,
      "à°Łà°Ĺà°²": 1729,
      "à°µà°¯à°®": 1730,
      "à°Ĺà°®à°¨": 1731,
      "Ġà°µà°¯": 1732,
      "à°¬à°¯à°Ł": 1733,
      "Ġà°°à°£": 1734,
      "à°¶à°¤": 1735,
      "Ġà°ĩà°¡": 1736,
      "à°¾à°Ĥ....": 1737,
      "Ġà°ıà°Ł": 1738,
      "Ġà°Ĵà°ķà°®": 1739,
      "à°¦à°°à°ª": 1740,
      "à°ªà°¡à°Ł": 1741,
      "Ġà°ªà°°à°ļ": 1742,
      "à°¤à°®à°µ": 1743,
      "à°ıà°°": 1744,
      "Ġà°ıà°®à°µ": 1745,
      "à°ļà°²à°ªà°¤": 1746,
      "Ġ20": 1747,
      "à°īà°¨": 1748,
      "Ġà°®à°Ĺà°ª": 1749,
      "-\"": 1750,
      "10": 1751,
      "is": 1752,
      "à°Ŀ": 1753,
      "à°¾.....\"": 1754,
      "à°¨à°°à°ķ": 1755,
      "à°°à°µà°²": 1756,
      "à°¡à°Łà°®": 1757,
      "à°µà°¯à°¸": 1758,
      "Ġà°ķà°§à°²": 1759,
      "Ġà°¨à°Ĺà°²": 1760,
      "Ġà°°à°¦": 1761,
      "Ġà°°à°Ĺ": 1762,
      "à°¶à°¨à°®": 1763,
      "Ġà°īà°ªà°¨": 1764,
      "à°¾à°Ĥ,": 1765,
      "Ġà°¶à°¨": 1766,
      "à°Ńà°¸": 1767,
      "Ġà°®à°¨à°¨": 1768,
      "Ġà°®à°¨à°µ": 1769,
      "à°ªà°¡à°ķ": 1770,
      "à°°à°ķà°¨": 1771,
      "à°ĸà°ªà°¡": 1772,
      "Ġà°ħà°µà°¤": 1773,
      "Ġà°ĵà°ķ": 1774,
      "Ġà°°à°ķà°®": 1775,
      "à±Ĥ.\"": 1776,
      "Ġ16": 1777,
      "à°¾...?": 1778,
      "à±ĩ......": 1779,
      "à°¢à°®": 1780,
      "Ġ0": 1781,
      "ĠA": 1782,
      "Ġo": 1783,
      "Ġ...\"": 1784,
      "à±į.....\"": 1785,
      "à°¾:": 1786,
      "à°°à°·": 1787,
      "à°ķà°²à°ķ": 1788,
      "à±ĭ....\"": 1789,
      "à°¯à°¦à°°": 1790,
      "à°ļà°¯à°®": 1791,
      "Ġà°¸à°¯": 1792,
      "Ġà°¸à°¡à°¨": 1793,
      "Ġà°Ĩà°ķà°¸": 1794,
      "Ġà°Ĩà°µà°°à°£": 1795,
      "Ġà°ľà°Ł": 1796,
      "Ġà°ľà°Ĺà°¤": 1797,
      "ĠĠĠĠĠ": 1798,
      "Ġà°Ĵà°Ł": 1799,
      "Ġà°¹à°®": 1800,
      "à°ªà°¡à°¤": 1801,
      "Ġà°ħà°¡à°Ĺà°Ł": 1802,
      "à°°à°ķà°®": 1803,
      "Ġà°ªà°¡à°µ": 1804,
      "Ġà°¸à°°à°³": 1805,
      "Ġà°ľà°°à°Ĺà°Ł": 1806,
      "à°İà°¦": 1807,
      "à°Ĩà°¹": 1808,
      "Ġà°Ĩà°¶à°¤": 1809,
      "à°Łà°ķà°®": 1810,
      "à°¾......": 1811,
      "à±į......": 1812,
      "à±ģ.......": 1813,
      "à°§à°ªà°¡à°¤": 1814,
      "Ġà°¦à°¯à°ļ": 1815,
      "________": 1816,
      "ar": 1817,
      "el": 1818,
      "it": 1819,
      "à°¨à°Ĺà°°": 1820,
      "à°Ĥ...\"": 1821,
      "à°ªà°¦à°²": 1822,
      "à°µà°ľ": 1823,
      "à°µà°¨à°®": 1824,
      "à°µà°ļà°¨": 1825,
      "à°®à°²à°¨": 1826,
      "à°ļà°¨à°ķ": 1827,
      "Ġà°®à°¬": 1828,
      "à°³à°ľ": 1829,
      "Ġà°¸à°¡": 1830,
      "Ġ\"....": 1831,
      "à°¬à°¸": 1832,
      "Ġà°°à°ļ": 1833,
      "Ġà°°à°ľ": 1834,
      "Ġà°°à°ļà°¨": 1835,
      "à°ľà°Ĺ": 1836,
      "à°£à°Ĺ": 1837,
      "Ġà°ľà°²à°ª": 1838,
      "Ġà°īà°¬": 1839,
      "à°Ńà°²": 1840,
      "à°¥à°®à°¯": 1841,
      "Ġà°ħà°¡à°ķ": 1842,
      "Ġà°ªà°°à°¸": 1843,
      "à°¯à°¨à°ķ": 1844,
      "Ġà°ħà°µà°¯à°µ": 1845,
      "à°¯à°ķà°¤": 1846,
      "à°¾!'": 1847,
      "Ġà°ĵà°Łà°®": 1848,
      "à°ķà°ªà°ķ": 1849,
      "à°¯à°®à°µ": 1850,
      "Ġà°ľà°°à°Ĺà°²": 1851,
      "à°¯à°Łà°®": 1852,
      "à°İà°Ł": 1853,
      "à°²à°®à°§": 1854,
      "à°®à°ķà°®": 1855,
      "Ġà°¸à°¹à°¸": 1856,
      "à°Ĭà°°": 1857,
      "Ġà°®à°¸à°ķ": 1858,
      "Ġd": 1859,
      "à±ģà°ģ": 1860,
      "à°¤à°ļ": 1861,
      "à±ĩ.....\"": 1862,
      "à°Łà°Ĺà°¦": 1863,
      "Ġà°µà°Ł": 1864,
      "à±Ĥ'": 1865,
      "Ġà°Ĩà°Ĺà°²": 1866,
      "à°ľà°¨à°®": 1867,
      "Ġà°¬à°¬": 1868,
      "Ġà°ĩà°¤": 1869,
      "čĊĠčĊĠ": 1870,
      "à°µà°°à°¯": 1871,
      "Ġà°¹à°²": 1872,
      "à°°à°®à°ķ": 1873,
      "à°°à°®à°£": 1874,
      "Ġà°ħà°¦à°¨": 1875,
      "Ġà°«à°°à°µ": 1876,
      "Ġà°ħà°¡à°Ĺà°²": 1877,
      "à°¦à°¨à°¨": 1878,
      "à°ĸà°ª": 1879,
      "à°¯à°ķà°®": 1880,
      "à±ĩà°Ĥ.": 1881,
      "Ġà°ĵà°²": 1882,
      "à°¦à°²à°µ": 1883,
      "à°Ĩà°¨": 1884,
      "à°¡à°µà°ķ": 1885,
      "Ġà°¸à°¹à°ľà°®": 1886,
      "à°§à°®à°µ": 1887,
      "à°ĥ\"": 1888,
      "à°īà°¦": 1889,
      "Ġà°°à°µà°³": 1890,
      "à°Ĵà°ķà°µ": 1891,
      "à°ļà°Ĺà°²à°¡": 1892,
      "Ġà°ĺà°°": 1893,
      "à°ĭà°·": 1894,
      "ea": 1895,
      "||": 1896,
      "Ġm": 1897,
      "à°²à°µà°Ł": 1898,
      "à°¡à°ķà°²": 1899,
      "à°Łà°µà°ļ": 1900,
      "à°ªà°¥": 1901,
      "à°¯à°¤à°²": 1902,
      "Ġà°ħà°µà°²": 1903,
      "à±Ĥ....\"": 1904,
      "Ġà°ļà°²à°¨": 1905,
      "Ġà°Ĺà°²à°µ": 1906,
      "à°§à°µà°²": 1907,
      "Ġà°ıà°¸": 1908,
      "à°Ńà°µà°®": 1909,
      "Ġà°ķà°²à°Ĺ": 1910,
      "à°Ĺà°°à°²": 1911,
      "à°ĩà°¤à°¨": 1912,
      "à°ªà°²à°®": 1913,
      "à°®à°²à°¤": 1914,
      "Ġà°īà°¦à°¯à°®": 1915,
      "à°¤à°°à°ª": 1916,
      "à°łà°¨": 1917,
      "Ġà°Ńà°¯à°ª": 1918,
      "Ġà°Ĺà°¡à°ª": 1919,
      "Ġ17": 1920,
      "à°¯à°µà°¹à°°": 1921,
      "Ġà°ľà°¨à°°à°²": 1922,
      "Ġà°ĭà°¶": 1923,
      "à°¯à°Ĺà°²à°¡": 1924,
      "Ġà°¯à°®à°§à°°": 1925,
      "ce": 1926,
      "ĠI": 1927,
      "à°¿:": 1928,
      "à°²à°µà°¡": 1929,
      "à°ķà°Łà°¨": 1930,
      "à°ķà°Ĺà°¦": 1931,
      "à°¡à°¬à°Ł": 1932,
      "à°Łà°ķà°ª": 1933,
      "à°ªà°¦à°¨": 1934,
      "Ġà°®à°ľ": 1935,
      "Ġà°¨à°¸": 1936,
      "à±ģ..": 1937,
      "Ġà°Ĺà°Ĺ": 1938,
      "Ġà°İà°Ĺà°¤": 1939,
      "Ġà°ľà°°à°ķ": 1940,
      "Ġà°ıà°²": 1941,
      "à°¦à°°à°ķ": 1942,
      "à°®à°¨à°®": 1943,
      "à°¦à°¨à°ķ": 1944,
      "à°ĸà°¤": 1945,
      "Ġ***": 1946,
      "Ġà°ªà°¡à°²": 1947,
      "Ġà°ĵà°Ł": 1948,
      "à°ķà°²à°®": 1949,
      "Ġà°¤à°°à°ª": 1950,
      "Ġà°¤à°°à°¬à°¡": 1951,
      "à°ıà°®à°¯": 1952,
      "à°¨à°ķà°®": 1953,
      "à±ģ!'": 1954,
      "à°ļà°°à°°": 1955,
      "à°łà°¸": 1956,
      "Ġà°µà°°à°¦": 1957,
      "à°¡à°Ĺà°¡": 1958,
      "à°°à°¦à°ķ": 1959,
      "Ġà°Ĩà°µà°¹": 1960,
      "à±ģ---": 1961,
      "à°¯à°Ĺà°²à°¨": 1962,
      "à°ĵà°¸": 1963,
      "à°ļà°Ĺà°²à°°": 1964,
      "à°ģ\"": 1965,
      "Ġà°µà°°à°¸à°Ĺ": 1966,
      "al": 1967,
      "ti": 1968,
      "à°¿..": 1969,
      "à°¨à°¶": 1970,
      "à°Łà°£": 1971,
      "à°ªà°²à°¨": 1972,
      "à°µà°®à°¨": 1973,
      "Ġà°ħà°µà°°": 1974,
      "Ġà°ħà°ĺ": 1975,
      "Ġà°µà°²à°¯": 1976,
      "Ġà°¨à°³": 1977,
      "à°³à°ļ": 1978,
      "Ġà°Ĩà°°à°µ": 1979,
      "à°·à°ªà°¡": 1980,
      "Ġà°¦à°¹": 1981,
      "Ġà°ĩà°¯": 1982,
      "Ġà°İà°Ĺà°°": 1983,
      "à°£à°µà°°": 1984,
      "à°µà°°à°¨": 1985,
      "à°µà°°à°¤": 1986,
      "Ġà°ıà°¦à°¨": 1987,
      "Ġà°ħà°¤à°£": 1988,
      "Ġà°Ńà°²": 1989,
      "Ġà°¯à°¨": 1990,
      "Ġà°¯à°¦": 1991,
      "Ġà°ħà°¡à°Ĺà°¡": 1992,
      "à°ĸà°¨": 1993,
      "Ġà°ķà°²à°Ĺà°²": 1994,
      "Ġà°ħà°µà°§": 1995,
      "à°¾?...": 1996,
      "à°Ĺà°²à°°": 1997,
      "à°Ĩà°¡à°ª": 1998,
      "à°ŀà°ª": 1999,
      "Ġà°ļà°¦à°µà°¡": 2000,
      "à°ĺà°Ł": 2001,
      "à°Ĺà°®à°£": 2002,
      "à°¿...?": 2003,
      "Ġ21": 2004,
      "à°§à°ªà°¡à°ķ": 2005,
      "à°¯à°Ĺà°²à°°": 2006,
      "ve": 2007,
      "Ġà±¦": 2008,
      "à°¾__": 2009,
      "à°°à°²à°¨": 2010,
      "à°ķà°°à°ķ": 2011,
      "à°¦à°Ń": 2012,
      "à°¤à°ªà°¨": 2013,
      "à°ªà°³": 2014,
      "à°µà°µà°²": 2015,
      "à°®à°ľ": 2016,
      "à°¯à°¤à°®": 2017,
      "à°Ĺà°µà°°": 2018,
      "à°Ĺà°ªà°Ł": 2019,
      "à°ļà°Łà°®": 2020,
      "Ġà°ªà°¥": 2021,
      "Ġà°ªà°¯à°¨": 2022,
      "à±ģ.'": 2023,
      "Ġà°¸à°¤à°®": 2024,
      "Ġà°Ĩà°µà°²": 2025,
      "Ġà°Ĩà°ļà°°": 2026,
      "Ġà°ħà°¨à°µà°¸à°°à°®": 2027,
      "ĠĠĊčĊ": 2028,
      "Ġà°¦à°®": 2029,
      "Ġà°ĩà°ķà°¨": 2030,
      "à°¹à°¹": 2031,
      "Ġà°īà°¹": 2032,
      "Ġà°īà°ªà°ķ": 2033,
      "Ġà°īà°Ńà°¯": 2034,
      "à°°à°®à°®": 2035,
      "à°¦à°¨à°®": 2036,
      "Ġà°ħà°°à°Ł": 2037,
      "Ġà°ªà°¡à°¡": 2038,
      "à°¤à°¨à°¨": 2039,
      "à°¯à°®à°Ĺ": 2040,
      "Ġà°ľà°°à°Ĺà°¡": 2041,
      "Ġà°¤à°°à°²": 2042,
      "Ġà°Ĩà°²à°¯": 2043,
      "ĠĊčĊĠ": 2044,
      "Ġà°¤à°ªà°¨": 2045,
      "à°°à°µà°¨": 2046,
      "à°Ĩà°¦": 2047,
      "Ġà°ħà°¸à°®à°°": 2048,
      "à°°à°ªà°¤": 2049,
      "Ġà°Ĩà°Ĺà°ķ": 2050,
      "à°¿....?": 2051,
      "à°Īà°°": 2052,
      "Ġà°Ĳà°¤": 2053,
      "Ġà°ľà°¯à°¶": 2054,
      "Ġà°ķà°¨à°¬à°¡à°²": 2055,
      "Ġ___": 2056,
      "à°ļà°Ĺà°²à°µ": 2057,
      "Ġà°ªà°°à°®à°¶": 2058,
      "à±į-\"": 2059,
      "20": 2060,
      "you": 2061,
      "Ġf": 2062,
      "Ġ.....\"": 2063,
      "Ġyou": 2064,
      "à°¾à°ĥ": 2065,
      "à°°à°ķà°¡": 2066,
      "à°°à°«": 2067,
      "à°°à°¥à°®": 2068,
      "à°²à°ªà°¡": 2069,
      "à°²à°µà°°à°ķ": 2070,
      "à°¦à°¶": 2071,
      "à°¦à°¹": 2072,
      "à±ĩ_": 2073,
      "à±ĭ_": 2074,
      "à°µà°ķà°ª": 2075,
      "Ġà°ħà°ľà°¯": 2076,
      "Ġà°ķà°°à°ķ": 2077,
      "Ġà°ªà°ķà°ªà°ķ": 2078,
      "Ġà°¨à°Łà°¨": 2079,
      "à±ģ......\"": 2080,
      "Ġà°Ĩà°¸à°°": 2081,
      "Ġà°°à°¹": 2082,
      "Ġà°¦à°¡à°¦": 2083,
      "Ġà°İà°¬": 2084,
      "Ġà°İà°«": 2085,
      "à°¹à°¨à°°": 2086,
      "à°¾à°Ĥ?\"": 2087,
      "à°µà°°à°®": 2088,
      "Ġà°¶à°°à°£": 2089,
      "à°Ńà°®à°¯": 2090,
      "à°¦à°°à°²": 2091,
      "Ġà°®à°¨à°µà°¡": 2092,
      "Ġà°Īà°®à°§": 2093,
      "à°ªà°¡à°¡": 2094,
      "à°ķà°¡à°²": 2095,
      "à°°à°¤à°Ĺ": 2096,
      "à°Łà°²à°µ": 2097,
      "Ġà°ħà°ªà°ķ": 2098,
      "Ġà°µà°¸à°¤": 2099,
      "à°ıà°®à°¨": 2100,
      "Ġà°¤à°ªà°¸": 2101,
      "à°ªà°²à°°": 2102,
      "à°Ĩà°«": 2103,
      "à°ļà°¨à°²à°¨": 2104,
      "à°ļà°¨à°²à°ķ": 2105,
      "à°łà°®": 2106,
      "ĠĠĠĠĠĠĠĠĠĠĠĠĠĠĠĠĠ": 2107,
      "à±ģ--": 2108,
      "à°¾....?\"": 2109,
      "Ġ__\"": 2110,
      "Ġà°Ńà°¯à°ªà°¡à°ķ": 2111,
      "Ġà°ľà°²à°¦à°°": 2112,
      "Ġà°¨à°¡à°µà°¸": 2113,
      "30": 2114,
      "ĠC": 2115,
      "Ġb": 2116,
      "à±§": 2117,
      "à±į_": 2118,
      "à°¨à°Ń": 2119,
      "à°¨à°ķà°°": 2120,
      "à°²à°µà°°": 2121,
      "à°¦à°ľ": 2122,
      "à°¦à°Ĺà°¤": 2123,
      "à°¤à°¬à°¡": 2124,
      "à°¡à°¨à°Ł": 2125,
      "à°¡à°¡à°®": 2126,
      "à°®à°°à°¸": 2127,
      "à°¸à°°à°®": 2128,
      "à°ļà°¨à°Ł": 2129,
      "Ġà°ħà°°à°ķ": 2130,
      "Ġà°®à°®à°ķ": 2131,
      "à°³à°®à°¨": 2132,
      "à°¬à°µà°³": 2133,
      "ĊčĊĠĠĠĠĠĠĠĠĠĠĠĠ": 2134,
      "Ġà°Ĺà°²à°¦": 2135,
      "Ġà°ħà°¨à°Ł": 2136,
      "Ġà°¬à°¯": 2137,
      "Ġà°¬à°¡à°²": 2138,
      "à°£à°²": 2139,
      "à°£à°ª": 2140,
      "Ġà°īà°ªà°¦": 2141,
      "à°µà°°à°°": 2142,
      "à°Ńà°°à°£": 2143,
      "Ġà°¹à°Ł": 2144,
      "à°°à°®à°²": 2145,
      "à°°à°®à°Ĺ": 2146,
      "Ġà°ªà°°à°µà°¶": 2147,
      "Ġà°ħà°²à°°": 2148,
      "à°µà°²à°¯": 2149,
      "Ġà°ħà°µà°¹": 2150,
      "à°¤à°®à°°": 2151,
      "à°¤à°²à°®": 2152,
      "à°²à°²à°¤": 2153,
      "à°Ĩà°¡": 2154,
      "à°¨à°ªà°¤": 2155,
      "à°¿?'": 2156,
      "à°ĺà°°": 2157,
      "Ġà°µà°¦à°²à°ķ": 2158,
      "à°¡à°Ĺà°Ł": 2159,
      "Ġà°·à°°à°¤": 2160,
      "à°Ĵà°ķà°¸": 2161,
      "à°ľà°¯à°µà°°": 2162,
      "Ġà°ľà°¯à°§": 2163,
      "Ġà°ĭà°£": 2164,
      "Ġà°ĭà°Ń": 2165,
      "Ġà°¥à°°": 2166,
      "à°Ĥ......": 2167,
      "à±ĭ......": 2168,
      "Ġà°ķà°²à°µà°°à°ªà°¡": 2169,
      "Ġà°ķà°²à°ķà°¤": 2170,
      "Ġà°ľà°Ĺà°ªà°¤": 2171,
      "Ġà°°à°£à°§": 2172,
      "Ġà°Ĩà°µà°°à°£à°²": 2173,
      "en": 2174,
      "re": 2175,
      "Ġg": 2176,
      "Ġp": 2177,
      "ĠĊĊčĊ": 2178,
      "à°¨à°¹": 2179,
      "à°ķà°ªà°Ł": 2180,
      "à°¦à°¯à°®": 2181,
      "à°¤à°µà°®": 2182,
      "à°¡à°²à°¨": 2183,
      "à°¡à°²à°ķ": 2184,
      "à°Łà°ľ": 2185,
      "à°ªà°¦à°®": 2186,
      "à°µà°ľà°¨": 2187,
      "à°®à°°à°£": 2188,
      "à°¸à°ªà°¡": 2189,
      "à°ļà°¨à°®": 2190,
      "Ġà°µà°¦à°¨": 2191,
      "Ġà°ªà°²à°ķà°²": 2192,
      "čĊĠĠĠĠ": 2193,
      "Ġà°¤à°®à°°": 2194,
      "à°¿.'": 2195,
      "Ġà°Ĩà°²à°ķ": 2196,
      "Ġà°Ĩà°¨à°µ": 2197,
      "à°·à°¦": 2198,
      "Ġà°Ĺà°µ": 2199,
      "à°ľà°µ": 2200,
      "à°ľà°¨à°ķ": 2201,
      "à°¶à°Ĺ": 2202,
      "Ġà°¬à°Łà°¨": 2203,
      "à±Ī\"": 2204,
      "à°§à°ªà°°": 2205,
      "Ġà°ľà°Ĺà°®": 2206,
      "Ġà°ľà°¯à°°": 2207,
      "à°¾à°Ĥ....\"": 2208,
      "Ġà°Ńà°¸": 2209,
      "Ġà°¯à°¥": 2210,
      "Ġà°ħà°¤à°¨à°¨": 2211,
      "à°²à°ķà°®": 2212,
      "Ġà°®à°°à°ķà°²": 2213,
      "à°°à°ķà°µ": 2214,
      "Ġà°ªà°¡à°¦": 2215,
      "à°¤à°¨à°¯": 2216,
      "à°ķà°²à°¤": 2217,
      "à°·à°£à°¨": 2218,
      "à°¤à°²à°²": 2219,
      "à°ĩà°µà°¨": 2220,
      "à°ļà°¨à°¤": 2221,
      "Ġà°Ĭà°¹à°²": 2222,
      "à°²à°®à°Ĺ": 2223,
      "à°¿!!": 2224,
      "Ġà°Ĩà°°à°Ĺ": 2225,
      "à°¡à°µà°¦": 2226,
      "Ġà°Ĩà°¯à°¨à°¨": 2227,
      "à°°à°¹à°®": 2228,
      "Ġà°ļà°¦à°µà°Ł": 2229,
      "à°¿.......": 2230,
      "à±ģ....?": 2231,
      "à°ļà°Łà°Ĺ": 2232,
      "Ġà°Ĩà°ªà°¦": 2233,
      "Ġà°Ĩà°ªà°¦à°²": 2234,
      "Ġà°Ĳà°¨": 2235,
      "à°°à°Ńà°¦": 2236,
      "à°¾...?\"": 2237,
      "à°¾....?": 2238,
      "à°ĵà°ķ": 2239,
      "à°¯à°Ĺà°²à°¦": 2240,
      "Ġ30": 2241,
      "à°Łà°µà°¶": 2242,
      "à°ļà°Ĺà°²à°¨": 2243,
      "à°Ĭà°¹": 2244,
      "!'": 2245,
      "RE": 2246,
      "ĠT": 2247,
      "Ġn": 2248,
      "à°¿___": 2249,
      "à°¾)": 2250,
      "à°¨à°²à°¨": 2251,
      "à°¨à°ķà°ª": 2252,
      "à°°à°²à°ķ": 2253,
      "à°°à°§à°®": 2254,
      "à°²à°·": 2255,
      "à°ķà°¥": 2256,
      "à°ķà°¬à°¡": 2257,
      "à°¦à°ķà°°": 2258,
      "à°Łà°ķà°²": 2259,
      "à°Łà°®à°°": 2260,
      "à°ªà°¤à°¨": 2261,
      "à°µà°¬à°¡": 2262,
      "à°¯à°§": 2263,
      "à°¯à°¤à°°": 2264,
      "à°Ĺà°¬à°Ł": 2265,
      "à°¸à°¸": 2266,
      "à°¸à°®à°¯": 2267,
      "à°ļà°ľ": 2268,
      "Ġà°ķà°µà°ļ": 2269,
      "Ġà°ķà°§à°¨": 2270,
      "Ġà°ªà°ķà°¡": 2271,
      "Ġà°®à°µ": 2272,
      "Ġà°Ĩà°·": 2273,
      "Ġà°Ĩà°¬": 2274,
      "Ġà°Ĩà°ªà°¡": 2275,
      "à°¬à°¹": 2276,
      "ĊčĊĠĠĠĠĠĠĠĠĠĠĠĠĠĠĠĠĠĠĠĠĠĠĠĠĠĠĠĠĠĠĠĠ": 2277,
      "Ġà°Ĺà°Ń": 2278,
      "à°ľà°¯à°°": 2279,
      "Ġà°ħà°¨à°¬à°¡": 2280,
      "à°¶à°¦": 2281,
      "à±Ī.": 2282,
      "à°§à°¨à°®": 2283,
      "Ġà°īà°§": 2284,
      "à°¾à°Ĥ?": 2285,
      "à°¾à°Ĥ...\"": 2286,
      "à°Ńà°Ĺ": 2287,
      "à°¦à°°à°¯": 2288,
      ".......": 2289,
      "Ġà°¹à°¤à°®": 2290,
      "Ġà°µà°ļà°¨": 2291,
      "à°°à°®à°µ": 2292,
      "à°°à°®à°ªà°¡": 2293,
      "Ġà°«à°²à°®": 2294,
      "à°¦à°¨à°Ĺ": 2295,
      "à°µà°²à°ª": 2296,
      "Ġà°ħà°µà°¡": 2297,
      "Ġà°Łà°°": 2298,
      "à±ĩà°Ĥ\"": 2299,
      "à°Ĺà°°à°µ": 2300,
      "à°ķà°²à°µ": 2301,
      "à°¦à°²à°¤": 2302,
      "à°¦à°²à°®": 2303,
      "à°ĩà°¹": 2304,
      "à°°à°¸à°µ": 2305,
      "à°¨à°ªà°¦": 2306,
      "à°®à°¯à°¤": 2307,
      "à±ģ?'": 2308,
      "Ġà°¨à°¡à°µà°¡": 2309,
      "à°ªà°¤à°¯": 2310,
      "à°¡à°Ĺà°²à°¨": 2311,
      "à°°à°¦à°®": 2312,
      "Ġà°ĸà°²": 2313,
      "Ġà°Ĩà°«à°°": 2314,
      "à°Īà°¸": 2315,
      "à°µà°ķà°£": 2316,
      "Ġà°Ľà°¸": 2317,
      "à±ĭ!!": 2318,
      "Ġ24": 2319,
      "à°īà°°": 2320,
      "à°īà°¤": 2321,
      "à°¯à°£à°¦": 2322,
      "à°ļà°Ĺà°²à°¦": 2323,
      "Ġ.\"": 2324,
      "Ġà°ķà°¦à°²à°¡": 2325,
      "à°ªà°Ĺà°²à°°": 2326,
      "Ġà°ıà°¡à°µà°ķ": 2327,
      "12": 2328,
      "19": 2329,
      "es": 2330,
      "ha": 2331,
      "nd": 2332,
      "ra": 2333,
      "ĠB": 2334,
      "Ġl": 2335,
      "Ġw": 2336,
      "à°Ķ": 2337,
      "à±į)": 2338,
      "à±į..": 2339,
      "à°°à°¦à°¨": 2340,
      "à°°à°Ĺà°²": 2341,
      "à°ķà°§": 2342,
      "à°¦à°²à°¨": 2343,
      "à°¤à°¸à°°": 2344,
      "à°Łà°¤à°ķ": 2345,
      "à°Łà°®à°¯": 2346,
      "à°ªà°®à°¤": 2347,
      "à°®à°µà°°": 2348,
      "à°Ĺà°µà°²": 2349,
      "à°Ĺà°¤à°®": 2350,
      "à°ļà°¨à°¨": 2351,
      "Ġà°ħà°°à°®": 2352,
      "Ġà°ħà°Ĺà°°": 2353,
      "Ġà°ķà°¯": 2354,
      "Ġà°ªà°§": 2355,
      "Ġà°¨à°¯à°¨": 2356,
      "Ġà°¤à°Ĺà°²à°¡": 2357,
      "à°³à°°": 2358,
      "à°³à°Ĺà°²": 2359,
      "Ġà°¸à°¡à°²": 2360,
      "Ġà°¸à°Ĺà°Ł": 2361,
      "Ġà°Ĩà°ķà°Ł": 2362,
      "à°·à°²à°ķ": 2363,
      "Ġà°°à°¸à°®": 2364,
      "Ġà°ĩà°¨à°ª": 2365,
      "Ġà°İà°®à°°": 2366,
      "Ġà°İà°°à°Ĺ": 2367,
      "à°£à°ªà°¤": 2368,
      "à°¹à°¬": 2369,
      "čĊĠčĊĠčĊ": 2370,
      "čĊĠčĊĠĠĠ": 2371,
      "Ġà°īà°µ": 2372,
      "Ġà°ıà°¯": 2373,
      "Ġà°¶à°°à°µ": 2374,
      "à°Ńà°¤": 2375,
      "Ġà°¤à°¨à°ļ": 2376,
      "Ġà°Ĵà°ķà°¤à°¨": 2377,
      "Ġà°¯à°¤": 2378,
      "Ġà°¹à°¦": 2379,
      "à°ħà°µà°¨": 2380,
      "à°¥à°¬": 2381,
      "à°°à°®à°¶": 2382,
      "à°ªà°¡à°²": 2383,
      "à°¦à°¨à°¤": 2384,
      "à°ĸà°¦": 2385,
      "à°°à°¤à°ķà°¨": 2386,
      "à°Łà°²à°ª": 2387,
      "Ġà°ħà°µà°Ł": 2388,
      "Ġà°Łà°ª": 2389,
      "Ġà°¸à°®à°¯à°®": 2390,
      "Ġà°ĵà°°à°ķ": 2391,
      "Ġà°ĵà°°à°Ĺ": 2392,
      "à°Ĺà°°à°¯": 2393,
      "ĠĊčĊĠĠ": 2394,
      "Ġà°§à°¨à°¦": 2395,
      "Ġà°§à°¨à°¸": 2396,
      "Ġà°ªà°¦à°®": 2397,
      "à°İà°µà°¡": 2398,
      "à°°à°µà°¯": 2399,
      "à°²à°µà°¦": 2400,
      "Ġà°Ĩà°¯à°¨à°¤": 2401,
      "Ġà°µà°°à°²à°ķ": 2402,
      "à°¿....?\"": 2403,
      "à°¿...?\"": 2404,
      "Ġà°Ĩà°¦à°¯": 2405,
      "Ġà°Ĳà°°": 2406,
      "à°Ĵà°ķà°Ł": 2407,
      "Ġà°¬à°²à°¶": 2408,
      "à°®à°£à°¸": 2409,
      "Ġ23": 2410,
      "Ġà°ķà°¥à°¨": 2411,
      "Ġ......\"": 2412,
      "à°Łà°²à°ķà°²": 2413,
      "Ġà°ĺà°¨": 2414,
      "à±Ģ......": 2415,
      "Ġà°°à°®à°£à°®": 2416,
      "à°ħà°¬à°¦": 2417,
      "Ġà°¯à°¶à°¸": 2418,
      "à°¸à°Ĺà°£à°ªà°¤": 2419,
      "Ġà°ħà°µà°¸à°°à°®à°¯": 2420,
      "Ġà°¦à°¶à°²": 2421,
      "à°ªà°Ĺà°²à°µ": 2422,
      "Ġà°Ĺà°ľà°Ĺà°ľ": 2423,
      "ĠĊč": 2424,
      "Ġà°¬à°¤à°ķà°®": 2425,
      "à°¹à°°à°£à°ķ": 2426,
      "ol": 2427,
      "ot": 2428,
      "us": 2429,
      "ĠD": 2430,
      "ĠW": 2431,
      "à°¿;": 2432,
      "à°¨à°µà°²": 2433,
      "à°Ĥ)": 2434,
      "à°Ĥ_": 2435,
      "à°²à°¦à°¨": 2436,
      "à°ķà°ªà°¡": 2437,
      "à°¦à°ľà°²": 2438,
      "à°¤à°Ń": 2439,
      "à±ĩ__": 2440,
      "à°¡à°µà°Ł": 2441,
      "à°¡à°ľà°¨": 2442,
      "à°Łà°Ĺà°Ł": 2443,
      "à°µà°§": 2444,
      "à°µà°Ĺà°²": 2445,
      "à°µà°¤à°ķ": 2446,
      "à°¯à°¨à°Ł": 2447,
      "à°¯à°¦à°¨": 2448,
      "à°¯à°¯à°¨": 2449,
      "à°¯à°¦à°²": 2450,
      "à°¯à°ľà°®": 2451,
      "à°Ĺà°§": 2452,
      "à°Ĺà°£à°®": 2453,
      "Ġà°ķà°°à°£": 2454,
      "Ġà°ªà°¤à°¨": 2455,
      "Ġà°®à°Ń": 2456,
      "Ġà°ļà°®": 2457,
      "Ġà°¤à°³": 2458,
      "Ġà°¸à°ļ": 2459,
      "Ġà°¸à°µà°¤": 2460,
      "Ġà°¸à°¦à°¸": 2461,
      "Ġà°Ĩà°¨à°ķ": 2462,
      "Ġà°Ĩà°ĺ": 2463,
      "à°·à°®à°¯": 2464,
      "Ġà°°à°¨": 2465,
      "Ġà°°à°¬": 2466,
      "ĊčĊĠĠĠĠĠĠĠĠĠĠĠĠĠ": 2467,
      "à°ľà°§": 2468,
      "à°ľà°®à°¯": 2469,
      "à°¶à°°à°¥": 2470,
      "Ġà°¦à°µà°¡": 2471,
      "à°§à°®à°¨": 2472,
      "à°¹à°ª": 2473,
      "à°¹à°µ": 2474,
      "Ġà°ıà°Ń": 2475,
      "Ġà°¶à°®": 2476,
      "Ġà°¯à°ķ": 2477,
      "Ġà°®à°¨à°¶": 2478,
      "Ġà°¹à°¡à°²": 2479,
      "à°ħà°¸": 2480,
      "à°²à°ķà°¨à°Ĺ": 2481,
      "Ġà°ħà°¡à°Ĺà°ķ": 2482,
      "à°°à°¤à°¨": 2483,
      "à°°à°¤à°®": 2484,
      "à°°à°¤à°ķà°¡": 2485,
      "à°°à°¤à°ķà°Ł": 2486,
      "Ġà°ķà°²à°¯": 2487,
      "Ġà°ħà°µà°¤à°°": 2488,
      "Ġà°Łà°µà°°": 2489,
      "à±ĩà°Ĥ!": 2490,
      "Ġ-\"": 2491,
      "à°¯à°²à°µ": 2492,
      "à°¨à°µà°ļ": 2493,
      "Ġà°¤à°°à°Ĺà°¤": 2494,
      "à°¤à°²à°Ĺ": 2495,
      "à°¦à°²à°Ĺ": 2496,
      "à°ĩà°·": 2497,
      "à°°à°£à°ķ": 2498,
      "à°°à°£à°®à°¯": 2499,
      "à°°à°µà°Ĺ": 2500,
      "à°Ĩà°ªà°°": 2501,
      "à°Ĩà°¡à°µ": 2502,
      "Ġà°¬à°¯à°Łà°¨": 2503,
      "à°ŀà°¸": 2504,
      "à°²à°µà°ķ": 2505,
      "à°®à°°à°ļ": 2506,
      "à°²à°¬à°¡à°²": 2507,
      "Ġà°ĸà°¯": 2508,
      "Ġà°Ĺà°¡à°ªà°¡": 2509,
      "à°Īà°µ": 2510,
      "Ġà°Ĩà°Łà°Ĺ": 2511,
      "à°¿.....?": 2512,
      "Ġ25": 2513,
      "Ġ28": 2514,
      "à°§à°ªà°¡à°²": 2515,
      "Ġà°ķà°¨à°¬à°¡à°ķ": 2516,
      "Ġà°ķà°¨à°¬à°¡à°Ł": 2517,
      "Ġà°ķà°¥à°ķ": 2518,
      "à°¾-\"": 2519,
      "Ġà°«à°²à°¹": 2520,
      "čĊĠčĊĠĠĠĠĠĠĠĠĠĠĠĠĠĠĠĠĠĠ": 2521,
      "Ġ194": 2522,
      "Ġ197": 2523,
      "à±Ĥ......": 2524,
      "Ġà°¦à°¶à°°à°§": 2525,
      "ing": 2526,
      "Ġà°ķà°²à°ķà°²": 2527,
      "Ġà°Ŀà°²": 2528,
      "000": 2529,
      "Ġto": 2530,
      "Ġthe": 2531,
      "ĊčĊĠčĊĠĠĠĠĠĠĠĠĠĠĠĠĠĠĠĠ": 2532,
      "à°°à°ķà°Łà°¨à°²": 2533,
      "ĊĊ": 2534,
      "ĠO": 2535,
      "ĠS": 2536,
      "Ġin": 2537,
      "à°¨à°ľ": 2538,
      "à°¨à°¤à°®": 2539,
      "à°¨à°ªà°°": 2540,
      "à°°à°¸à°°": 2541,
      "à°°à°ªà°°": 2542,
      "à°²à°µà°¨": 2543,
      "à°²à°Ńà°®": 2544,
      "à°ķà°¶": 2545,
      "à°ķà°¤à°¨": 2546,
      "à°¦à°µà°¤": 2547,
      "à°¤à°§": 2548,
      "à±ĩ..": 2549,
      "à°Łà°µà°²à°¸": 2550,
      "à°µà°ªà°¤": 2551,
      "à°µà°ķà°®": 2552,
      "à°µà°¶à°ķ": 2553,
      "à°¯à°ªà°°à°ļ": 2554,
      "à°Ĺà°²à°ķ": 2555,
      "à°Ĺà°¬à°¡": 2556,
      "à°Ĺà°ķà°ª": 2557,
      "à°Ĺà°µà°¤": 2558,
      "à°¸à°²à°®": 2559,
      "à°ļà°¦à°²": 2560,
      "à±Ģ;": 2561,
      "à±Ģ_": 2562,
      "Ġà°µà°Ĺà°°": 2563,
      "Ġà°ªà°²à°ķ": 2564,
      "Ġà°ªà°§à°ķ": 2565,
      "à±Ĥ__": 2566,
      "Ġà°¤à°ļ": 2567,
      "Ġà°¤à°«": 2568,
      "Ġà°¤à°®à°²": 2569,
      "à°³à°µà°²à°¸": 2570,
      "Ġà°¸à°ĸ": 2571,
      "Ġ\".....": 2572,
      "Ġà°°à°¡": 2573,
      "Ġà°Ĺà°¡à°Ĺà°¡": 2574,
      "à°ľà°¯à°¨": 2575,
      "Ġà°ħà°¨à°¨": 2576,
      "à°¶à°ªà°¡": 2577,
      "Ġà°¦à°³": 2578,
      "Ġà°ĩà°ķà°ª": 2579,
      "Ġà°ĩà°¤à°¡": 2580,
      "à°§à°¯": 2581,
      "à°§à°²à°¨": 2582,
      "à°¹à°²à°¤": 2583,
      "à°µà°°à°¸": 2584,
      "Ġà°¶à°¯": 2585,
      "Ġà°¶à°¤à°ķ": 2586,
      "Ġà°¶à°°à°¦": 2587,
      "à°Ńà°µà°¤": 2588,
      "Ġà°Ńà°ľà°¨": 2589,
      "à°¦à°°à°¨": 2590,
      "Ġà°®à°¨à°µà°°": 2591,
      "à°ħà°Ĺ": 2592,
      "à°¥à°²à°®": 2593,
      "Ġà°¡à°¯à°²": 2594,
      "à°ķà°¡à°¯": 2595,
      "Ġà°®à°°à°£à°®": 2596,
      "à°°à°ķà°ª": 2597,
      "à°°à°ķà°¦à°¬": 2598,
      "Ġà°ªà°°à°¶": 2599,
      "Ġà°ħà°°à°¡à°ľà°¨": 2600,
      "à°°à°¤à°°": 2601,
      "à°°à°¤à°ķà°²": 2602,
      "Ġà°ķà°²à°µà°²": 2603,
      "à°Łà°²à°²": 2604,
      "à°Łà°²à°®": 2605,
      "à°¨à°¦à°®": 2606,
      "Ġ--": 2607,
      "à°µà°¡à°®à°¨": 2608,
      "Ġà°ľà°°à°Ĺà°ķ": 2609,
      "Ġà°ªà°¨à°¯": 2610,
      "à°ıà°³": 2611,
      "à°·à°£à°¤": 2612,
      "Ġà°ªà°Łà°ªà°Ł": 2613,
      "à°¨à°®à°Ĺ": 2614,
      "à°İà°¤": 2615,
      "à°°à°µà°Ł": 2616,
      "à°Ĩà°ķ": 2617,
      "à±ģ!!": 2618,
      "Ġà°¨à°¡à°ļ": 2619,
      "Ġà°¨à°¡à°ķà°¤": 2620,
      "Ġà°µà°¦à°²à°¨": 2621,
      "Ġà°İà°¨à°Ń": 2622,
      "Ġà°Ĩà°Ĺà°®à°¨": 2623,
      "à°ªà°ķà°¶à°ķ": 2624,
      "à°ķà°®à°Ĺ": 2625,
      "Ġà°ĩà°ļà°Ł": 2626,
      "à°¯à°µà°¦": 2627,
      "Ġà°¸à°¹à°ķ": 2628,
      "Ġà°¸à°¹à°ļà°°": 2629,
      "Ġà°ĩà°µà°¤à°²": 2630,
      "à°°à°Ĺà°¸": 2631,
      "à°°à°Ĺà°¬": 2632,
      "à°¡à°¤à°¡": 2633,
      "ĠĠĠĊ": 2634,
      "à°īà°²": 2635,
      "à°ĵà°°": 2636,
      "Ġ.......": 2637,
      "Ġ........": 2638,
      "Ġà°¬à°¸à°µà°¯": 2639,
      "à°ªà°Ĺà°²à°¨": 2640,
      "Ġà°ķà°¦à°²à°²": 2641,
      "čĊĠčĊĠĠĠĠĠĠĠĠĠĠĠĠĠĠĠĠĠĠĠ": 2642,
      "Ġà°Ĺà°²à°Ĺà°²": 2643,
      "à°Ĺà°³à°¸": 2644,
      "Ġà°¨à°Ĺà°°à°®": 2645,
      "Ġà°£à°Ĺà°£": 2646,
      "Ġà°ħà°²à°¸à°Ł": 2647,
      "à°Ĺà°²à°¨à°¨": 2648,
      "Ġà°ªà°Ĺà°²à°¬à°¡": 2649,
      "à°®à°°à°¸à°®": 2650,
      "à°¯à°¤à°°à°Ĺà°¤": 2651,
      "à°Ķà°¨": 2652,
      "IN": 2653,
      "ĠM": 2654,
      "ĠN": 2655,
      "Ġis": 2656,
      "à°¾..": 2657,
      "à°¾___": 2658,
      "à°Ĥ.....\"": 2659,
      "à°²à°®à°¨": 2660,
      "à°ķà°¸à°²": 2661,
      "à°¤à°¶": 2662,
      "à°¤à°µà°°": 2663,
      "à°¤à°ķà°¡": 2664,
      "à°¡à°ķà°Ł": 2665,
      "à°Łà°ªà°°à°ļ": 2666,
      "à±ĭ)": 2667,
      "à±ĭ.....\"": 2668,
      "à°ªà°µà°ļ": 2669,
      "à°ªà°¦à°²à°ļ": 2670,
      "à°µà°®à°°": 2671,
      "à°®à°ķà°ª": 2672,
      "à°Ĺà°Ń": 2673,
      "à°Ĺà°ªà°¤": 2674,
      "à°¸à°ļ": 2675,
      "à°¸à°¬": 2676,
      "à°¸à°®à°¨": 2677,
      "à°ļà°¤": 2678,
      "à±Ĩ-": 2679,
      "à±Ģ.....\"": 2680,
      "Ġà°µà°°à°®": 2681,
      "Ġà°µà°¨à°®": 2682,
      "Ġà°ªà°®": 2683,
      "Ġà°ªà°¹à°°": 2684,
      "Ġà°ªà°Ĺà°Ł": 2685,
      "Ġà°®à°Ĺà°¡": 2686,
      "čĊĠĠĠĠĠĠĠĠĠĠĠĠĠĠĠĠĠĠĠĠĠĠĠĠĠĠĠĠĠĠĠĠ": 2687,
      "Ġà°ļà°µ": 2688,
      "Ġà°¤à°³à°¤": 2689,
      "à°³à°¬à°¡": 2690,
      "à°³à°ķà°ª": 2691,
      "à°³à°¨à°¨": 2692,
      "Ġà°¸à°µà°°à°£": 2693,
      "à°¿.)": 2694,
      "à°·à°²à°¤": 2695,
      "à°·à°ķà°®": 2696,
      "à°·à°Łà°ª": 2697,
      "Ġà°°à°¤à°¨": 2698,
      "Ġà°°à°¹à°®": 2699,
      "Ġà°Ĺà°¯": 2700,
      "à°ľà°®à°¨": 2701,
      "à°ľà°¯à°®": 2702,
      "à°¶à°¶": 2703,
      "Ġà°¦à°¦": 2704,
      "Ġà°¦à°£": 2705,
      "à°£à°®à°¯": 2706,
      "à°¹à°°à°¨": 2707,
      "Ġà°ľà°¨à°®": 2708,
      "Ġà°ľà°¡à°²": 2709,
      "Ġà°ľà°¨à°°": 2710,
      "Ġà°īà°Ł": 2711,
      "Ġà°īà°¯": 2712,
      "à°¾à°Ĥ-": 2713,
      "Ġà°¯à°Ĺ": 2714,
      "......\"": 2715,
      "Ġà°¹à°¯": 2716,
      "à°ħà°§": 2717,
      "à°¥à°¯": 2718,
      "à°ªà°¡à°®": 2719,
      "Ġà°®à°°à°¦à°²": 2720,
      "Ġà°ªà°°à°§": 2721,
      "à°ĸà°ķ": 2722,
      "à°ĸà°¶": 2723,
      "Ġà°ķà°¨à°¬à°°": 2724,
      "Ġà°¤à°²à°Ĺ": 2725,
      "Ġà°¤à°²à°ªà°Ł": 2726,
      "Ġà°ħà°²à°µà°°": 2727,
      "Ġà°ķà°²à°µà°¡": 2728,
      "à°Łà°²à°¯": 2729,
      "Ġà°ħà°µà°¤à°²à°ķ": 2730,
      "à°«à°²à°®": 2731,
      "Ġà°Łà°µà°²": 2732,
      "Ġà°ħà°ªà°µ": 2733,
      "Ġà°¸à°®à°Ĺ": 2734,
      "Ġà°¸à°°à°¯": 2735,
      "Ġà°¸à°°à°«à°°": 2736,
      "Ġà°ĵà°¨": 2737,
      "à°°à°£à°®à°¨": 2738,
      "à°°à°µà°®": 2739,
      "à°Ĩà°¶": 2740,
      "Ġà°İà°²à°°": 2741,
      "Ġà°¬à°¯à°Łà°µ": 2742,
      "Ġà°®à°§à°¨à°ªà°¡": 2743,
      "à°ķà°Łà°¯": 2744,
      "Ġà°Ĩà°¶à°ªà°¡": 2745,
      "à°ŀà°ķ": 2746,
      "à°ŀà°¤à°Ĺ": 2747,
      "à°ŀà°¤à°¤": 2748,
      "Ġà°Ĩà°¯à°¨à°²": 2749,
      "Ġà°¨à°¡à°µà°Ł": 2750,
      "à°ĺà°µà°°": 2751,
      "à°ĺà°µà°¯": 2752,
      "Ġà°İà°¨à°²": 2753,
      "Ġà°Ĩà°Ĺà°¦": 2754,
      "ĠĠĠĠĠĠĠĠĠĠĠĠĠĠĠĠĠĠ": 2755,
      "ĠĠĠĠĠĠĠĠĠĠĠĠĠĠĠĠĠĠĠĠ": 2756,
      "à±ĩ!!": 2757,
      "à±ĩ!'": 2758,
      "à°ľà°®à°£": 2759,
      "à°¾\".": 2760,
      "à°°à°ľà°²à°¨": 2761,
      "čĊĠĊ": 2762,
      "Ġà°Ĳà°¯": 2763,
      "Ġà°Ĳà°¦à°µ": 2764,
      "à°Ĵà°ķà°°": 2765,
      "Ġà°µà°²à°ª": 2766,
      "Ġà°Ĩà°¸à°¨": 2767,
      "ĊĊčĊĠĠĠĠĠĠĠĠĠĠĠĠĠĠĠĠĠĠĠĠĠĠĠĠĠĠĠĠĠĠĠĠ": 2768,
      "à±ģ........": 2769,
      "Ġ29": 2770,
      "Ġà°ķà°¨à°¬à°¡à°¡": 2771,
      "Ġà°ĭà°ķ": 2772,
      "Ġà°ĭà°Ĺ": 2773,
      "à±ĩ...?": 2774,
      "Ġà°ĺà°¡": 2775,
      "Ġà°ĺà°Ł": 2776,
      "à°¯à°Ĺà°²à°µ": 2777,
      "Ġà°¤à°Łà°¸": 2778,
      "à°¯à°®à°¨à°¸": 2779,
      "Ġà°ľà°²à°ľà°²": 2780,
      "à°ĺà°Łà°¨à°¤": 2781,
      "Ġ198": 2782,
      "Ġ1920": 2783,
      "Ġà°µà°²à°¨à°¨": 2784,
      "Ġà°µà°¦à°²à°¡": 2785,
      "Ġà°ķà°¨à°ªà°¡à°ķ": 2786,
      "à±ģ___": 2787,
      "à°Ĩà°¯à°¨à°ķ": 2788,
      "Ġà°µà°°à°¸à°²": 2789,
      "Ġfor": 2790,
      "06": 2791,
      "ad": 2792,
      "et": 2793,
      "id": 2794,
      "ig": 2795,
      "om": 2796,
      "Ċč": 2797,
      "ĠR": 2798,
      "Ġit": 2799,
      "à±įà°ģ": 2800,
      "à°¾_": 2801,
      "à°¨à°ķà°¡": 2802,
      "à°°à°µà°²à°¸": 2803,
      "à°²à°ªà°Ł": 2804,
      "à°ķà°·à°¨": 2805,
      "à°¦à°³": 2806,
      "à°¦à°Ĺà°²": 2807,
      "à°¤à°®à°¨": 2808,
      "à°¤à°¶à°ķ": 2809,
      "à°¡à°¤à°²": 2810,
      "à°Łà°ªà°°": 2811,
      "à±ĭ__": 2812,
      "à°ªà°°à°®": 2813,
      "à°ªà°µà°²": 2814,
      "à°µà°·": 2815,
      "à°¯à°¤à°ķ": 2816,
      "à°¯à°Ńà°°": 2817,
      "à°¯à°¦à°²à°ļ": 2818,
      "à°ļà°ķà°®": 2819,
      "à°ļà°µà°¦": 2820,
      "à±Ĩ....": 2821,
      "à±Ģ||": 2822,
      "Ġà°ªà°ł": 2823,
      "Ġà°®à°¡à°®": 2824,
      "Ġà°®à°®à°¤": 2825,
      "Ġà°®à°¡à°¤": 2826,
      "à±Ĥ_": 2827,
      "Ġà°¨à°¤": 2828,
      "Ġà°¨à°ª": 2829,
      "Ġà°¨à°°à°¨": 2830,
      "Ġà°¨à°°à°¹à°°": 2831,
      "à°³à°µà°ļ": 2832,
      "Ġà°Ĩà°³": 2833,
      "Ġà°Ĩà°ªà°²": 2834,
      "Ġà°Ĩà°Łà°ķ": 2835,
      "Ġà°Ĩà°Ńà°°à°£": 2836,
      "ĊčĊĠĠĠĠĠĠĠĠĠĠĠ": 2837,
      "à°ľà°¯à°ķ": 2838,
      "à°¶à°¨à°°": 2839,
      "Ġà°¬à°³": 2840,
      "Ġà°¦à°¡": 2841,
      "Ġà°ĩà°¯à°°": 2842,
      "Ġà°ĩà°µà°¤à°²à°ķ": 2843,
      "Ġà°²à°ľ": 2844,
      "à°§à°²à°ķ": 2845,
      "à°£à°°": 2846,
      "à°£à°¦": 2847,
      "à°¹à°£": 2848,
      "à°¹à°¤à°ª": 2849,
      "Ġà°ıà°ª": 2850,
      "Ġà°¶à°ª": 2851,
      "Ġà°¶à°²à°µ": 2852,
      "à°Ńà°µà°¨": 2853,
      "à°Ńà°¯à°ªà°¡": 2854,
      "à°ħà°¹": 2855,
      "à°ħà°°à°µ": 2856,
      "Ġà°Īà°¦": 2857,
      "Ġà°¡à°¸": 2858,
      "Ġà°¡à°ľà°¨": 2859,
      "à°ªà°¡à°¨": 2860,
      "à°ªà°¡à°¦": 2861,
      "à°®à°¨à°²": 2862,
      "Ġà°ħà°¡à°Ĺà°¬": 2863,
      "Ġà°ªà°°à°µ": 2864,
      "Ġà°ħà°°à°²": 2865,
      "à°°à°¤à°²": 2866,
      "Ġà°ķà°²à°¤": 2867,
      "Ġà°ķà°²à°ª": 2868,
      "Ġà°ķà°²à°Ĺà°ľ": 2869,
      "à°¯à°ķà°°à°®": 2870,
      "Ġà°ªà°¡à°¬": 2871,
      "Ġà°ħà°ªà°¶": 2872,
      "à°¨à°¦à°²": 2873,
      "à°¸à°°à°Ł": 2874,
      "à°¸à°°à°¸": 2875,
      "Ġ-:": 2876,
      "Ġ---": 2877,
      "à°¾?!": 2878,
      "à°¾?....": 2879,
      "à°¤à°¨à°²": 2880,
      "Ġà°ľà°°à°Ĺà°¨": 2881,
      "à°Ĺà°²à°²": 2882,
      "à°Ĺà°²à°®": 2883,
      "à°ķà°²à°²": 2884,
      "à°ķà°²à°¯": 2885,
      "Ġà°¤à°°à°£": 2886,
      "à°ıà°ķ": 2887,
      "Ġà°¨à°µà°²à°¨": 2888,
      "Ġà°¨à°µà°²à°ķ": 2889,
      "à°¤à°²à°¤": 2890,
      "à°ĩà°¸": 2891,
      "à°ĩà°ļ": 2892,
      "à°İà°¯": 2893,
      "à°Ĩà°¯": 2894,
      "à°Ĩà°¸": 2895,
      "à°µà°¤à°µ": 2896,
      "Ġà°Ĭà°¦": 2897,
      "Ġà°Ĭà°Ł": 2898,
      "à°¿!'": 2899,
      "à°ķà°Łà°®": 2900,
      "à°ŀà°µà°²": 2901,
      "à°ŀà°¤à°²": 2902,
      "à±ģ...!": 2903,
      "Ġà°Ĩà°¯à°¨à°Ĺ": 2904,
      "Ġà°ĸà°¦": 2905,
      "Ġà°ĸà°¡": 2906,
      "Ġà°Ĩà°Ĺà°¡": 2907,
      "à°¿........": 2908,
      "à°¿.........": 2909,
      "à°¿......\"": 2910,
      "à±ģ....?\"": 2911,
      "à°°à°Ĺà°¨": 2912,
      "à°°à°ľà°ķ": 2913,
      "Ġà°¬à°²à°ªà°¡": 2914,
      "à°Ĥ!!": 2915,
      "à°Łà°ªà°Ĺà°²": 2916,
      "à±ĩ.......": 2917,
      "à°īà°·": 2918,
      "Ġà°ĭà°ľ": 2919,
      "à°¯à°£à°ķ": 2920,
      "Ġà°Ĭà°¹à°ķ": 2921,
      "à°Łà°ªà°¡à°¤": 2922,
      "à°¥à°®à°µ": 2923,
      "à°Ĳà°¸": 2924,
      "à°ģ!": 2925,
      "à°¢à°¨": 2926,
      "Ġà°¬à°¤à°ķà°²": 2927,
      "Ġà°ĩà°°à°µà°¯": 2928,
      "Ġà°§à°¨à°²à°ķ": 2929,
      "Ġà°¦à°¯à°µà°²": 2930,
      "Ġà°¬à°¯à°Łà°ªà°¡à°²": 2931,
      "čĊĠčĊĠĠĠĠĠĠĠĠĠĠĠĠĠĠĠĠĠĠĠĠĠĠĠĠĠĠĠĠ": 2932,
      "Ġ199": 2933,
      "à°±à°®": 2934,
      "Ġà°Ĺà°ľà°¦": 2935,
      "à°¹à°°à°£à°²": 2936,
      "Ġà°Ķà°¨": 2937,
      "à°ĺà°Łà°¨à°¨": 2938,
      "Ġà°¨à°°à°¨à°°": 2939,
      "18": 2940,
      "EN": 2941,
      "ES": 2942,
      "er": 2943,
      "ic": 2944,
      "ly": 2945,
      "ĠL": 2946,
      "ĠP": 2947,
      "Ġha": 2948,
      "à°¨à°Ĺà°²": 2949,
      "à°²à°ªà°°": 2950,
      "à°²à°¶à°®": 2951,
      "à°ķà°µà°°": 2952,
      "à°ķà°®à°¨": 2953,
      "à°ķà°®à°¯": 2954,
      "à°ķà°ļà°ķ": 2955,
      "à°¦à°¯à°µ": 2956,
      "à°¦à°¦à°¯": 2957,
      "à°¤à°µà°²": 2958,
      "à°¤à°ªà°°": 2959,
      "à°¡à°µà°°": 2960,
      "à°¡à°µà°¨": 2961,
      "à°¡à°°à°¨": 2962,
      "à°Łà°³": 2963,
      "à°Łà°¨à°Ł": 2964,
      "à°Łà°¨à°µ": 2965,
      "à°Łà°¡à°®": 2966,
      "à±ĭ:": 2967,
      "à°ªà°µà°¦": 2968,
      "à°ªà°®à°Ĺ": 2969,
      "à°ªà°¨à°µà°¸à°°": 2970,
      "à°µà°ķà°¨": 2971,
      "à°®à°¶à°ķ": 2972,
      "à°¯à°¹": 2973,
      "à°Ĺà°µà°¸": 2974,
      "à°¸à°¨à°®": 2975,
      "à°ļà°¦à°Ĺ": 2976,
      "Ġà°ħà°ļà°Ł": 2977,
      "à±Ĩ...": 2978,
      "à±Ĩ!\"": 2979,
      "à±Ģ__": 2980,
      "Ġà°µà°²à°²": 2981,
      "Ġà°ķà°ļ": 2982,
      "Ġà°ķà°¦à°°": 2983,
      "Ġà°ķà°¡à°¤": 2984,
      "Ġà°®à°¦à°°": 2985,
      "čĊĠĠĠĠĠĠĠĠĠĠĠĠ": 2986,
      "à±ģ..\"": 2987,
      "Ġà°¤à°¹à°¤": 2988,
      "à°³à°¦à°Ĺ": 2989,
      "Ġà°Ĩà°ªà°¨": 2990,
      "Ġ\"...": 2991,
      "à°·à°°à°®": 2992,
      "à°¬à°²à°®": 2993,
      "Ġà°Ĺà°ļ": 2994,
      "Ġà°Ĺà°°à°²": 2995,
      "à°ľà°Ĺà°¨": 2996,
      "à°ľà°Ĺà°¦": 2997,
      "à°¶à°¸": 2998,
      "Ġà°¬à°²à°¯": 2999,
      "Ġà°¬à°ľà°°": 3000,
      "Ġà°²à°¬": 3001,
      "Ġà°²à°¤à°¨": 3002,
      "Ġà°İà°ķà°°": 3003,
      "à°§à°µà°¨": 3004,
      "à°§à°¨à°Ĺ": 3005,
      "à°£à°¶": 3006,
      "à°£à°¯à°®": 3007,
      "ĠčĊĠĠĠ": 3008,
      "Ġà°ľà°¤": 3009,
      "Ġà°ľà°Ĺà°ľ": 3010,
      "Ġà°īà°¬à°²": 3011,
      "à°¾à°Ĥ.....\"": 3012,
      "Ġà°ıà°µà°Ĺ": 3013,
      "Ġà°¶à°µà°®": 3014,
      "Ġà°Ĵà°ļ": 3015,
      "Ġà°¤à°¨à°¯": 3016,
      "à°¦à°°à°¸": 3017,
      "à°ħà°ļ": 3018,
      "à°ħà°¶": 3019,
      "à°ħà°¨à°¸": 3020,
      "Ġà°Īà°ķ": 3021,
      "à°¥à°¸": 3022,
      "à°¥à°¨à°°": 3023,
      "Ġà°¡à°¨": 3024,
      "à°ķà°¡à°µ": 3025,
      "à°®à°¨à°¡": 3026,
      "Ġà°ħà°¡à°Ĺà°¨": 3027,
      "à°°à°ķà°¦": 3028,
      "à°¦à°¨à°¡": 3029,
      "Ġà°ķà°²à°Ĺà°¡": 3030,
      "à°Łà°²à°¦": 3031,
      "Ġà°ħà°µà°¦": 3032,
      "à°«à°¸": 3033,
      "à°¯à°ķà°¨": 3034,
      "à°¯à°ķà°²": 3035,
      "Ġà°ªà°¡à°¸": 3036,
      "à°¾?\"\"": 3037,
      "à°¸à°°à°¦": 3038,
      "à°ªà°Łà°¡": 3039,
      "à°¾?!\"": 3040,
      "à°¾?...\"": 3041,
      "à°ķà°°à°°": 3042,
      "Ġà°ĵà°®": 3043,
      "à°¯à°®à°§": 3044,
      "Ġà°ľà°°à°Ĺà°¦": 3045,
      "à°¯à°²à°¤": 3046,
      "à°¨à°µà°¸": 3047,
      "Ġà°¤à°°à°¹": 3048,
      "à°ıà°¡à°µà°ķ": 3049,
      "à°¨à°¨à°¡": 3050,
      "à°°à°¯à°ªà°¡": 3051,
      "à°¨à°ķà°Ł": 3052,
      "à°²à°²à°®": 3053,
      "à°İà°¡": 3054,
      "à°Ĩà°ª": 3055,
      "à°µà°¤à°Ĺ": 3056,
      "à°®à°²à°®": 3057,
      "à°¨à°ªà°¨": 3058,
      "Ġà°ħà°¸à°®": 3059,
      "à°ļà°²à°µ": 3060,
      "Ġà°Ĩà°¶à°ķ": 3061,
      "à±ģ...?": 3062,
      "à±ģ...?\"": 3063,
      "à°¡à°µà°¯": 3064,
      "à±į!'": 3065,
      "à°ĺà°¨": 3066,
      "à°ªà°ķà°®": 3067,
      "à°³à°¨à°¤": 3068,
      "à°°à°¶à°¸": 3069,
      "ĠĠĠĠĠĠĠĠĠĠĠĠĠĠĠĠĠĠĠ": 3070,
      "ĠĠĠĠĠĠĠĠĠĠĠĠĠĠĠĠĠĠĠĠĠĠĠĠĠĠĠĠ": 3071,
      "Ġà°ħà°Ĺà°¸": 3072,
      "Ġà°Ĺà°¡à°ªà°Ł": 3073,
      "à°¦à°®à°¸": 3074,
      "Ġà°®à°¹à°¨": 3075,
      "Ġà°¤à°Ĺà°²à°ķ": 3076,
      "Ġà°Ĩà°¡à°¡": 3077,
      "Ġà°Ĩà°¡à°¬": 3078,
      "à±į\".": 3079,
      "à°¬à°°à°ªà°¡": 3080,
      "Ġà°¨à°²à°Ńà°¯": 3081,
      "à°¦à°µà°¯": 3082,
      "à°Īà°®": 3083,
      "à°®à°£à°®": 3084,
      "à°ľà°¯à°²à°ķ": 3085,
      "Ġà°Ĩà°¸à°ª": 3086,
      "Ġà°ľà°¯à°ª": 3087,
      "Ġ22": 3088,
      "à°§à°ªà°¡à°Ł": 3089,
      "à±ĩ\".": 3090,
      "Ġà°¤à°¡à°¬": 3091,
      "Ġ....?": 3092,
      "à°Ľà°¨": 3093,
      "Ġ__________": 3094,
      "Ġà°¬à°¹à°¦": 3095,
      "Ġ31": 3096,
      "Ġ32": 3097,
      "Ġ34": 3098,
      "à±ĩ-\"": 3099,
      "Ġà°ķà°¬à°³": 3100,
      "à°ĺà°Łà°¨à°²à°¨": 3101,
      "à°¯à°¬à°¦": 3102,
      "čĊĠčĊĠĠĠĠĠĠĠĠĠĠĠĠĠĠĠĠĠ": 3103,
      "čĊĠčĊĠĠĠĠĠĠĠĠĠĠĠĠĠĠĠĠĠĠĠĠĠĠĠĠĠĠĠĠĠ": 3104,
      "Ġà°µà°¦à°²à°Ĺ": 3105,
      "Ġà°ķà°¨à°ªà°¡à°²": 3106,
      "à±Ĥ-\"": 3107,
      "Ġà°¸à°Ńà°²": 3108,
      "Ġà°ªà°Ĺà°²à°Ĺ": 3109,
      "Ġand": 3110,
      "Ġà°ľà°®à°¦à°Ĺ": 3111,
      "Ġà°¤à°Ĺà°²à°¬à°¡": 3112,
      "Ġà°İà°¡à°®à°ļ": 3113,
      "Ġà°¸à°¤à°®à°¤à°®": 3114,
      "Ġà°¦à°¡à°¦à°¡": 3115,
      "Ġnot": 3116,
      "Ġà°¸à°¦à°¸à°¸": 3117,
      "à°ľà°¯à°¨à°Ĺà°°": 3118,
      "Ġà°£à°Ĺà°£à°Ĺ": 3119,
      "!...": 3120,
      ".,": 3121,
      "25": 3122,
      "50": 3123,
      "AL": 3124,
      "ER": 3125,
      "TI": 3126,
      "ay": 3127,
      "ed": 3128,
      "han": 3129,
      "if": 3130,
      "ove": 3131,
      "un": 3132,
      "ĠG": 3133,
      "Ġk": 3134,
      "Ġ..": 3135,
      "à°°à°µà°¡": 3136,
      "à°°à°²à°µ": 3137,
      "à°°à°ĺ": 3138,
      "à°ķà°Ń": 3139,
      "à°ķà°¤à°²": 3140,
      "à°¦à°¨à°Ł": 3141,
      "à°¦à°¤à°¡": 3142,
      "à°¤à°¹": 3143,
      "à°¤à°¬à°Ł": 3144,
      "à±ĩ___": 3145,
      "à°¡à°¬à°²": 3146,
      "à°Łà°¤à°²": 3147,
      "à°Łà°ªà°¨": 3148,
      "à°ªà°µà°°": 3149,
      "à°µà°¦à°²": 3150,
      "à°µà°¨à°ķ": 3151,
      "à°µà°µà°ļ": 3152,
      "à°µà°Ĺà°¤": 3153,
      "à°µà°µà°²à°¸": 3154,
      "à°®à°·": 3155,
      "à°®à°°à°¯": 3156,
      "à°®à°Łà°¨": 3157,
      "à°®à°°à°ª": 3158,
      "à°¯à°µà°°": 3159,
      "à°¯à°¶à°ķ": 3160,
      "à°¯à°«à°²": 3161,
      "à°Ĺà°®à°¯": 3162,
      "à°Ĺà°µà°ķ": 3163,
      "à°ļà°¦à°¨": 3164,
      "à°ļà°ªà°°": 3165,
      "Ġà°ķà°°à°ª": 3166,
      "Ġà°ªà°¸à°°": 3167,
      "Ġà°ªà°Ĺà°¤": 3168,
      "Ġà°ļà°¦à°°à°ª": 3169,
      "Ġà°¸à°¦à°¨": 3170,
      "à°·à°ľ": 3171,
      "à°·à°Ń": 3172,
      "à°·à°µà°²à°¯": 3173,
      "à°¬à°µ": 3174,
      "à°¬à°³": 3175,
      "ĊčĊĠĠĠĠ": 3176,
      "ĊčĊĠčĊĠ": 3177,
      "ĊčĊĠĠĠĠĠĠĠĠĠĠĠĠĠĠ": 3178,
      "Ġà°Ĺà°³": 3179,
      "Ġà°Ĺà°¡à°Ĺ": 3180,
      "à°ľà°¬": 3181,
      "à°ľà°²à°ķ": 3182,
      "à°ľà°Ĺà°¤": 3183,
      "Ġà°ħà°¨à°Ĺà°²": 3184,
      "à°¶à°®à°¨": 3185,
      "à°¶à°ªà°°": 3186,
      "ĠĠčĊ": 3187,
      "Ġà°¬à°ļ": 3188,
      "Ġà°¬à°²à°Ĺ": 3189,
      "Ġà°¦à°¸": 3190,
      "Ġà°¦à°Ń": 3191,
      "Ġà°ĩà°°à°ķ": 3192,
      "Ġà°²à°¤à°ķ": 3193,
      "Ġà°İà°ļà°Ł": 3194,
      "à°§à°¨à°ķ": 3195,
      "à°§à°°à°¶": 3196,
      "à°£à°ļ": 3197,
      "à°£à°®à°¨": 3198,
      "čĊĠčĊĠĠĠĠĠĠĠĠĠĠĠĠĠ": 3199,
      "Ġà°ľà°ł": 3200,
      "Ġà°īà°³": 3201,
      "Ġà°īà°·à°¸": 3202,
      "à°µà°°à°ª": 3203,
      "Ġà°ħà°¤à°²": 3204,
      "Ġà°ħà°¤à°Ĺ": 3205,
      "à°Ńà°ª": 3206,
      "à°Ńà°¯à°®": 3207,
      "à°Ńà°¨à°®": 3208,
      "à°Ńà°Ĺà°µ": 3209,
      "Ġà°Ĵà°£": 3210,
      "Ġà°Ńà°³": 3211,
      "Ġà°Ĵà°ķà°°à°ķ": 3212,
      "à°¦à°°à°µ": 3213,
      "à°ħà°«": 3214,
      "à°ħà°®à°°": 3215,
      "Ġà°ħà°¤à°¨à°²": 3216,
      "à°²à°ķà°¡": 3217,
      "à°¥à°¤": 3218,
      "Ġà°¡à°¯": 3219,
      "Ġà°ħà°¦à°²": 3220,
      "Ġà°«à°Ł": 3221,
      "à°¦à°¨à°°": 3222,
      "Ġà°ªà°°à°ªà°¤": 3223,
      "à°ĸà°ķà°µ": 3224,
      "Ġà°ħà°°à°¨": 3225,
      "à°°à°¤à°¤": 3226,
      "Ġà°¤à°²à°ªà°¡": 3227,
      "Ġà°ħà°²à°®à°Ł": 3228,
      "Ġà°ħà°µà°Ĺà°²à°¨": 3229,
      "à°«à°Ł": 3230,
      "à°«à°¯": 3231,
      "Ġà°Łà°ķà°Ł": 3232,
      "à±ĩà°Ĥ....": 3233,
      "Ġà°ªà°¡à°¨": 3234,
      "Ġà°ªà°¡à°ķà°ª": 3235,
      "Ġà°ħà°ªà°¨": 3236,
      "Ġà°ħà°ªà°¨à°®": 3237,
      "Ġà°ĵà°£": 3238,
      "à°¨à°µà°®": 3239,
      "à°¨à°ķà°µ": 3240,
      "à°ĩà°°à°µ": 3241,
      "à°°à°¸à°¤": 3242,
      "à°°à°µà°¤": 3243,
      "à°°à°µà°ļà°¨": 3244,
      "à°Ĩà°¤": 3245,
      "à°Ĩà°ĸà°°": 3246,
      "Ġà°Ĭà°¬": 3247,
      "Ġà°®à°§à°¨": 3248,
      "Ġà°ħà°¸à°Ń": 3249,
      "à°ļà°²à°°": 3250,
      "à°¿?...": 3251,
      "à°¿?...\"": 3252,
      "à°ŀà°²": 3253,
      "à°ľà°¨à°²": 3254,
      "à°¡à°¨à°Ĺ": 3255,
      "Ġà°¨à°¡à°ķà°²": 3256,
      "Ġà°ħà°Ńà°¯": 3257,
      "à°¯à°¸à°¨": 3258,
      "à°®à°ķà°¦": 3259,
      "à°®à°°à°²": 3260,
      "Ġà°İà°¨à°°": 3261,
      "Ġà°ķà°°à°ļ": 3262,
      "Ġà°Ĺà°¡à°ªà°²": 3263,
      "à°ªà°¨à°²": 3264,
      "Ġà°®à°¹à°®": 3265,
      "Ġà°ıà°¡à°µà°¡": 3266,
      "Ġà°Ĩà°¡à°ķ": 3267,
      "Ġà°Ĩà°¡à°¤": 3268,
      "Ġà°Ĩà°¡à°ªà°¡": 3269,
      "à°¯à°¤à°¤": 3270,
      "à°¬à°°à°°": 3271,
      "à°°à°Ĺà°ķ": 3272,
      "à°¨à°°à°¬": 3273,
      "à°µà°¦à°¤": 3274,
      "Ġà°¤à°®à°¤": 3275,
      "à°ħà°µà°¸à°°": 3276,
      "Ġà°Ĭà°°à°¡": 3277,
      "Ġà°Ĭà°°à°Ł": 3278,
      "Ġà°ħà°§à°°": 3279,
      "à°Ĵà°ķà°¨": 3280,
      "à°ªà°¦à°¹": 3281,
      "à°¯à°Ĺà°²à°¨à°¨": 3282,
      "ĊĊčĊĠĠĠĠĠĠĠĠĠĠĠĠ": 3283,
      "Ġà°īà°ªà°¸": 3284,
      "à±į......\"": 3285,
      "à°¿.....?\"": 3286,
      "Ġà°ķà°¨à°¬à°¡à°¤": 3287,
      "à°ĵà°ª": 3288,
      "à°Łà°ªà°¡à°¡": 3289,
      "Ġà°ĺà°¨à°ķ": 3290,
      "Ġà°Ńà°¯à°ªà°¡à°¤": 3291,
      "à±ĩ--": 3292,
      "à°Ĥ....?": 3293,
      "Ġà°®à°Ĺà°¤à°Ĺ": 3294,
      "à°µà°¤à°²à°²": 3295,
      "Ġà°¬à°¤à°ķà°¡": 3296,
      "Ġà°¬à°¤à°ķà°¨": 3297,
      "à°¿''": 3298,
      "Ġà°ħà°£à°Ĺà°¦": 3299,
      "Ġà°īà°°à°«": 3300,
      "Ġà°¬à°¯à°Łà°ªà°¡à°¡": 3301,
      "čĊĠčĊĠĠĠĠĠĠĠĠĠĠĠĠĠĠĠĠĠĠĠĠ": 3302,
      "čĊĠčĊĠĠĠĠĠĠĠĠĠĠĠĠĠĠĠĠĠĠĠĠĠĠĠĠĠ": 3303,
      "à±ĭ-\"": 3304,
      "à°¾.....?\"": 3305,
      "Ġà°¬à°²à°®à°¯": 3306,
      "Ġ193": 3307,
      "Ġà°ħà°¸à°¹à°ľ": 3308,
      "----": 3309,
      "à°®à°Łà°¤": 3310,
      "à°¨à°¬à°¡à°²": 3311,
      "Ġà°ľà°°à°Ĺà°µà°²à°¸": 3312,
      "à°¡à°Ĺà°²à°¦": 3313,
      "à°¡à°Ĺà°²à°µ": 3314,
      "Ġà°ħà°²à°¸à°Łà°Ĺ": 3315,
      "Ġà°ķà°²à°µà°°à°ª": 3316,
      "à°¯à°Ńà°Ł": 3317,
      "****": 3318,
      "Ġà°ıà°¡à°µà°¸": 3319,
      "Ġà°¦à°¬à°¦à°¬": 3320,
      "Ġà°ļà°¦à°µà°®à°¨": 3321,
      "čĊĠĠĠĠĠĠĠĠĠĠĠĠĠĠĠĠĠĠ": 3322,
      "Ġà°Īà°¯à°¨à°ķ": 3323,
      "ter": 3324,
      "à°ĸà°ªà°¡à°²": 3325,
      "Ġà°Ĩà°ķà°¸à°®": 3326,
      "ead": 3327,
      "à°ĺà°Łà°¨à°ķ": 3328,
      "Ġà°¦à°¡à°¦à°¡à°²": 3329,
      "ent": 3330,
      "Ġà°¤à°³à°¤à°³": 3331,
      "Ġà°®à°¡à°®à°¤": 3332,
      "Ġà°Ĺà°¡à°Ĺà°¡à°²": 3333,
      "à°ĸà°ķà°µà°³": 3334,
      "11": 3335,
      "24": 3336,
      "36": 3337,
      "56": 3338,
      "??": 3339,
      "ON": 3340,
      "TA": 3341,
      "ec": 3342,
      "ht": 3343,
      "im": 3344,
      "sp": 3345,
      "ues": 3346,
      "ĠE": 3347,
      "Ġ[": 3348,
      "Ġà°³": 3349,
      "à±į:": 3350,
      "à°¿..\"": 3351,
      "à°¨à°µà°°": 3352,
      "à°¨à°¨à°Ł": 3353,
      "à°¨à°ªà°Ł": 3354,
      "à°¨à°²à°¤": 3355,
      "à°¨à°¸à°²": 3356,
      "à°Ĥ..": 3357,
      "à°°à°Ĺà°°": 3358,
      "à°°à°¯à°®": 3359,
      "à°°à°²à°¤": 3360,
      "à°°à°§à°°": 3361,
      "à°²à°ļà°ķ": 3362,
      "à°²à°¦à°Ĺ": 3363,
      "à°ķà°¤à°ķ": 3364,
      "à°ķà°¨à°µà°¸à°°": 3365,
      "à°¦à°ķà°ª": 3366,
      "à°¤à°°à°ķ": 3367,
      "à°¤à°¦à°¨": 3368,
      "à°¤à°ķà°°": 3369,
      "à°¤à°µà°¨": 3370,
      "à°¤à°µà°Ĺ": 3371,
      "à°¡à°ªà°Ł": 3372,
      "à°Łà°¹": 3373,
      "à°Łà°ªà°Ł": 3374,
      "à°Łà°Łà°®": 3375,
      "à°Łà°¶à°ķ": 3376,
      "à°ªà°§": 3377,
      "à°µà°¤à°¨": 3378,
      "à°®à°Ń": 3379,
      "à°®à°¨à°Ł": 3380,
      "à°®à°¦à°Ĺ": 3381,
      "à°¯à°µà°¨": 3382,
      "à°¯à°¤à°Ĺ": 3383,
      "à°¯à°£à°®": 3384,
      "à°Ĺà°¶": 3385,
      "à°Ĺà°°à°®": 3386,
      "à°Ĺà°¡à°®": 3387,
      "à°¸à°³": 3388,
      "à°¸à°Ń": 3389,
      "à°ļà°Ĺà°¤": 3390,
      "à°ļà°¦à°²à°ļ": 3391,
      "Ġà°µà°¨à°¸": 3392,
      "Ġà°ķà°¡à°²": 3393,
      "Ġà°ªà°¯": 3394,
      "Ġà°ªà°µà°®": 3395,
      "Ġà°®à°¥": 3396,
      "Ġà°®à°²à°¯": 3397,
      "Ġà°®à°±": 3398,
      "à±Ĥ.....\"": 3399,
      "à±Ĥà°ģ": 3400,
      "čĊĠĠĠĠĠĠĠĠĠĠĠĠĠĠĠ": 3401,
      "Ġà°ļà°°à°£": 3402,
      "Ġà°¤à°¸": 3403,
      "Ġà°¤à°¬": 3404,
      "Ġà°¤à°§": 3405,
      "Ġà°¤à°¦à°¨": 3406,
      "Ġà°¤à°°à°¤à°°": 3407,
      "à°³à°¨à°ķ": 3408,
      "à°³à°¡à°®": 3409,
      "Ġà°¸à°¦à°°": 3410,
      "Ġà°¸à°ªà°°": 3411,
      "Ġà°Ĩà°¡à°Ĺ": 3412,
      "Ġà°Ĩà°ļà°°à°£": 3413,
      "à°¬à°Ĺ": 3414,
      "à°¬à°¬": 3415,
      "à°¬à°ľ": 3416,
      "à°¬à°¤à°Ĺ": 3417,
      "Ġà°°à°ľà°¸": 3418,
      "Ġà°°à°¸à°µ": 3419,
      "Ġà°°à°Ńà°¸": 3420,
      "Ġà°Ĺà°ª": 3421,
      "à°ľà°¤": 3422,
      "à°ľà°Ł": 3423,
      "à°ľà°ľ": 3424,
      "Ġà°ħà°¨à°¤": 3425,
      "Ġà°ħà°¨à°µà°¸": 3426,
      "à°¶à°²à°¨": 3427,
      "à°¶à°¨à°²": 3428,
      "à°¶à°¨à°®à°¯": 3429,
      "Ġà°¦à°¯à°¤": 3430,
      "Ġà°ĩà°¦à°¨": 3431,
      "à±Ī?\"": 3432,
      "Ġà°İà°Ĺà°¬": 3433,
      "à°§à°¶": 3434,
      "à°£à°ªà°¡": 3435,
      "à°¹à°Ĺ": 3436,
      "à°¹à°°à°®": 3437,
      "à°¹à°¤à°²": 3438,
      "ĠčĊčĊ": 3439,
      "ĠčĊĠĠ": 3440,
      "ĠčĊĠĠĠĠĠĠĠĠĠĠĠĠ": 3441,
      "čĊĠčĊĠĠĠĠĠĠĠĠĠĠĠĠ": 3442,
      "Ġà°ľà°¯à°¨": 3443,
      "Ġà°ľà°µà°¦": 3444,
      "Ġà°ľà°ªà°®": 3445,
      "Ġà°ıà°Ĺ": 3446,
      "Ġà°ıà°ľà°¨": 3447,
      "Ġà°ıà°ķà°®": 3448,
      "Ġà°ıà°ķà°ķ": 3449,
      "Ġà°¶à°¯à°¨": 3450,
      "Ġà°Ĵà°²": 3451,
      "Ġà°¤à°¨à°ķà°¨": 3452,
      "Ġà°Ńà°Ł": 3453,
      "à°²à°¨à°ķ": 3454,
      "Ġà°Ĵà°ķà°ķ": 3455,
      "à°¦à°°à°¦à°¨": 3456,
      "....?": 3457,
      "........": 3458,
      "Ġà°®à°¨à°¤": 3459,
      "à°ħà°µà°¸à°°à°®": 3460,
      "à°²à°ķà°Ł": 3461,
      "à°²à°ķà°ª": 3462,
      "Ġà°Īà°¤": 3463,
      "Ġà°¡à°²": 3464,
      "à±ģ,\"": 3465,
      "Ġà°«à°²à°¦": 3466,
      "à°®à°¨à°¦": 3467,
      "Ġà°ħà°¡à°ª": 3468,
      "Ġà°ªà°°à°ļà°¡": 3469,
      "à°ĸà°ļ": 3470,
      "à°ĸà°ªà°Ł": 3471,
      "Ġà°ķà°¨à°¡": 3472,
      "à°¯à°¨à°¨": 3473,
      "Ġà°ķà°²à°Ĺà°ķ": 3474,
      "Ġ**": 3475,
      "Ġà°ªà°¡à°µà°²": 3476,
      "Ġà°ªà°¡à°®à°Ł": 3477,
      "Ġà°ħà°ªà°¸": 3478,
      "Ġà°ħà°ªà°¹": 3479,
      "à°ªà°Łà°ª": 3480,
      "à°¾!?\"": 3481,
      "Ġà°¸à°®à°¯à°¸": 3482,
      "à°¬à°¡à°¤": 3483,
      "Ġà°ĵà°µ": 3484,
      "Ġà°ĵà°µà°°": 3485,
      "à°¤à°®à°®": 3486,
      "à°¤à°¨à°¤": 3487,
      "à°¨à°µà°ľ": 3488,
      "Ġà°ķà°³à°²": 3489,
      "Ġà°ªà°¨à°¸à°ļ": 3490,
      "Ġà°Ĩà°²à°¶": 3491,
      "Ġà°ħà°¤à°¡à°¨": 3492,
      "à°·à°£à°°": 3493,
      "à°¤à°²à°µ": 3494,
      "à°ķà°¨à°ķ": 3495,
      "Ġà°§à°°à°²": 3496,
      "à°ĩà°¡": 3497,
      "à°¤à°ķà°®": 3498,
      "à°ªà°²à°ª": 3499,
      "à°°à°¸à°ªà°¡": 3500,
      "à°°à°¸à°¨à°Ĺ": 3501,
      "à°°à°£à°¹": 3502,
      "à°İà°°": 3503,
      "à°°à°µà°ķ": 3504,
      "à°°à°µà°§": 3505,
      "à°°à°µà°Ń": 3506,
      "à°Ĩà°ļ": 3507,
      "à°Ĩà°¡à°¦": 3508,
      "à°Ĩà°²à°¸": 3509,
      "à°ªà°°à°²": 3510,
      "à°¡à°²à°¤": 3511,
      "à°¡à°²à°µ": 3512,
      "à°¡à°²à°¯": 3513,
      "Ġà°Ĭà°°à°ķà°¨": 3514,
      "à±ģ!!\"": 3515,
      "à°µà°¨à°²": 3516,
      "à°Łà°¨à°·": 3517,
      "Ġà°ķà°¦à°®": 3518,
      "à°ŀà°ļ": 3519,
      "à°łà°ķà°®": 3520,
      "Ġà°ļà°¦à°µà°ķ": 3521,
      "Ġà°Ĺà°¦à°®": 3522,
      "Ġà°µà°°à°¦à°²": 3523,
      "à°®à°ķà°¸": 3524,
      "à°®à°ķà°¥": 3525,
      "Ġà°Ĩà°Ĺà°Ĺ": 3526,
      "à°³à°ķà°¦": 3527,
      "à°°à°¶à°ķ": 3528,
      "ĠĠĠĠĠĠĠĠĠĠĠĠĠĠĠĠĠĠĠĠĠĠĠĠĠĠ": 3529,
      "ĠĠĠĠĠĠĠĠĠĠĠĠĠĠĠĠĠĠĠĠĠĠĠĠĠ": 3530,
      "ĠĠĠĠĠĠĠĠĠĠĠĠĠĠĠĠĠĠĠĠĠĠĠ": 3531,
      "à°¦à°ķà°°à°®à°¯": 3532,
      "à°Łà°ķà°·": 3533,
      "à°¦à°Łà°Ĺ": 3534,
      "Ġà°ķà°Łà°ķà°Ł": 3535,
      "à°¦à°®à°µ": 3536,
      "à°¦à°®à°Ĺ": 3537,
      "Ġà°¤à°Ĺà°¨": 3538,
      "Ġà°ıà°¡à°µà°Ł": 3539,
      "à°¨à°²à°Ń": 3540,
      "à°ļà°Łà°ªà°¡": 3541,
      "à°Īà°²": 3542,
      "Ġà°¤à°®à°¦": 3543,
      "Ġà°Ĩà°¦à°®à°°à°ļ": 3544,
      "Ġà°Ĳà°ķ": 3545,
      "Ġà°Ĳà°ª": 3546,
      "à°ħà°µà°¤à°²": 3547,
      "à°Ĵà°Ł": 3548,
      "à°Ĵà°ª": 3549,
      "Ġà°¬à°²à°ª": 3550,
      "Ġà°µà°²à°¸": 3551,
      "Ġà°¶à°¤à°¸": 3552,
      "Ġà°Ĵà°ķà°Łà°µ": 3553,
      "à°¾.......": 3554,
      "ĊĊčĊĠĠĠĠĠĠĠĠĠĠ": 3555,
      "à±Ĩ.\"": 3556,
      "Ġà°īà°ªà°µ": 3557,
      "Ġà°īà°ªà°Ĺ": 3558,
      "Ġà°īà°ªà°ľ": 3559,
      "Ġà°īà°ªà°ķà°°": 3560,
      "à±ģ.....?": 3561,
      "à°§à°¨à°²à°ķ": 3562,
      "à°¸à°®à°¸": 3563,
      "Ġà°ħà°¶à°ķ": 3564,
      "à°§à°ªà°¡à°¨": 3565,
      "à°§à°ªà°¡à°¡": 3566,
      "à°Ľà°°": 3567,
      "à°Ľà°¤": 3568,
      "à°Ľà°Ĺ": 3569,
      "à°Łà°ªà°¡à°¨": 3570,
      "à°ļà°Ĺà°²à°¦à°¨": 3571,
      "à°³à°®à°§": 3572,
      "à°¾à°Ĥ\".": 3573,
      "à°Ĥ...?": 3574,
      "à°Ĳà°¡": 3575,
      "à°Ĳà°¯": 3576,
      "à°İà°µà°°à°¨": 3577,
      "à°İà°µà°°à°¦": 3578,
      "Ġà°Ĺà°¤à°ľà°¨": 3579,
      "à°Ĥ-\"": 3580,
      "Ġ50": 3581,
      "à°¦à°ªà°¡à°¤": 3582,
      "Ġà°ªà°Ĺà°³": 3583,
      "čĊĠčĊĠĠĠĠĠĠĠĠĠĠĠĠĠĠĠĠĠĠĠĠĠĠĠĠĠĠĠ": 3584,
      "čĊĠčĊĠĠĠĠĠĠĠĠĠĠĠĠĠĠĠĠĠĠĠĠĠĠ": 3585,
      "à°¾.....?": 3586,
      "Ġ192": 3587,
      "--\"": 3588,
      "à°¯à°¬à°¡à°¤": 3589,
      "à°ķà°°à°®à°¯": 3590,
      "à°ªà°Ĺà°²à°¦": 3591,
      "Ġà°¸à°¦à°Ń": 3592,
      "à°ªà°£à°²": 3593,
      "à°¡à°Ĺà°²à°¡": 3594,
      "Ġà°ķà°²à°µà°°à°ªà°°": 3595,
      "à°µà°Ńà°°à°¤": 3596,
      "à°®à°¶à°°": 3597,
      "Ġà°¨à°°à°ķà°¯": 3598,
      "els": 3599,
      "ity": 3600,
      "Ġà°ħà°µà°¯à°µà°®": 3601,
      "tion": 3602,
      "Ġà°¸à°¤à°®à°¤à°®à°µ": 3603,
      "Ġà°ķà°µà°ļà°®": 3604,
      "Ġà°¶à°°à°µà°£à°¨": 3605,
      "Ġà°ļà°®à°¸à°®": 3606,
      "ight": 3607,
      "\".": 3608,
      "03": 3609,
      "13": 3610,
      "IT": 3611,
      "OM": 3612,
      "OU": 3613,
      "VE": 3614,
      "ag": 3615,
      "ex": 3616,
      "il": 3617,
      "ial": 3618,
      "od": 3619,
      "the": 3620,
      "ul": 3621,
      "ĠF": 3622,
      "à±į__": 3623,
      "à°¨à°·": 3624,
      "à°¨à°¥": 3625,
      "à°¨à°¯à°®": 3626,
      "à°¨à°¤à°ķ": 3627,
      "à°¨à°ļà°°": 3628,
      "à°¨à°¡à°Ĺ": 3629,
      "à°¨à°°à°²": 3630,
      "à°¨à°ªà°°à°ļ": 3631,
      "à°Ĥ:": 3632,
      "à°Ĥ;": 3633,
      "à°°à°¦à°²": 3634,
      "à°°à°²à°²": 3635,
      "à°°à°ľà°¨": 3636,
      "à°°à°ªà°°à°ļ": 3637,
      "à°²à°Łà°°": 3638,
      "à°²à°¯à°®": 3639,
      "à°²à°¤à°²": 3640,
      "à°²à°ªà°²": 3641,
      "à°ķà°¹": 3642,
      "à°ķà°µà°¨": 3643,
      "à°ķà°®à°ķ": 3644,
      "à°¦à°µà°²": 3645,
      "à°¦à°¬à°¡": 3646,
      "à°¤à°ªà°Ł": 3647,
      "à°¤à°ªà°°à°ļ": 3648,
      "à±ĩà°ģ": 3649,
      "à°¡à°ľ": 3650,
      "à°¡à°¦à°²": 3651,
      "à°¡à°¨à°ķ": 3652,
      "à°¡à°®à°°": 3653,
      "à°Łà°¶": 3654,
      "à°Łà°µà°°": 3655,
      "à°Łà°¦à°¨": 3656,
      "à°Łà°µà°²": 3657,
      "à°Łà°ķà°°": 3658,
      "à°Łà°ķà°Ł": 3659,
      "à°Łà°¬à°Ł": 3660,
      "à°ªà°ªà°¡": 3661,
      "à°ªà°Łà°²": 3662,
      "à°ªà°¸à°°": 3663,
      "à°ªà°¨à°¨": 3664,
      "à°ªà°¦à°ķ": 3665,
      "à°µà°ªà°¡": 3666,
      "à°µà°ķà°°": 3667,
      "à°µà°¨à°¨": 3668,
      "à°µà°ªà°°": 3669,
      "à°µà°¸à°²": 3670,
      "à°®à°°à°ķ": 3671,
      "à°®à°¯à°®": 3672,
      "à°®à°ķà°²": 3673,
      "à°®à°ªà°°": 3674,
      "à°®à°¸à°®": 3675,
      "à°Ĺà°¡à°²": 3676,
      "à°Ĺà°µà°¨": 3677,
      "à°Ĺà°³à°ķ": 3678,
      "à°Ĺà°¦à°®": 3679,
      "à°Ĺà°¡à°ķ": 3680,
      "à°¸à°¶": 3681,
      "à°¸à°²à°ķ": 3682,
      "à°¸à°«": 3683,
      "à°ļà°²à°®": 3684,
      "Ġà°ħà°§à°®": 3685,
      "à±Ĩ.....": 3686,
      "Ġà°µà°¶à°¨": 3687,
      "Ġà°ķà°ľ": 3688,
      "Ġà°ķà°¹": 3689,
      "Ġà°ķà°²à°¨": 3690,
      "Ġà°ķà°¨à°Ł": 3691,
      "Ġà°ķà°ªà°Ł": 3692,
      "Ġà°ķà°°à°µ": 3693,
      "Ġà°ķà°®à°°": 3694,
      "Ġà°ªà°ľ": 3695,
      "Ġà°ªà°°à°ķ": 3696,
      "Ġà°ªà°Ĺà°¨": 3697,
      "Ġà°®à°¸à°²": 3698,
      "à±Ĥ--": 3699,
      "čĊĠĠĠĠĠĠĠĠĠĠĠĠĠ": 3700,
      "čĊĠĠĠĠĠ": 3701,
      "Ġà°ļà°®à°¤": 3702,
      "Ġà°¨à°Ń": 3703,
      "Ġà°¨à°ĸà°¶": 3704,
      "Ġà°¤à°°à°®": 3705,
      "Ġà°¤à°ķà°¦": 3706,
      "Ġà°¸à°¶": 3707,
      "Ġà°¸à°°à°®": 3708,
      "Ġà°¸à°«": 3709,
      "Ġà°¸à°Ĺà°°": 3710,
      "à°¿.,": 3711,
      "Ġà°Ĩà°ľà°¨": 3712,
      "Ġà°Ĩà°ªà°ķ": 3713,
      "Ġà°Ĩà°¯à°¤": 3714,
      "Ġ\"......": 3715,
      "à°·à°²à°¨": 3716,
      "à°·à°¸à°°": 3717,
      "à°·à°²à°¯": 3718,
      "à°·à°§à°®": 3719,
      "à°¬à°¶": 3720,
      "à°¬à°ķà°°": 3721,
      "à°¬à°²à°¤": 3722,
      "ĊčĊĠĠĠĠĠĠĠĠĠĠ": 3723,
      "Ġà°Ĺà°¦à°°": 3724,
      "à°ľà°¨à°µ": 3725,
      "à°ľà°°à°¯": 3726,
      "à°ľà°¦à°¤": 3727,
      "à°¶à°ªà°¡à°ķ": 3728,
      "Ġà°¦à°§": 3729,
      "Ġà°¦à°¶à°ķ": 3730,
      "Ġà°ĩà°Ĺ": 3731,
      "à±Ī'": 3732,
      "à±Ī.....": 3733,
      "à±Īà°ĥ": 3734,
      "Ġà°²à°¯": 3735,
      "Ġà°²à°¤à°²": 3736,
      "Ġà°İà°µà°¨": 3737,
      "à°§à°ļ": 3738,
      "à°§à°ķà°®": 3739,
      "à°§à°¶à°¤": 3740,
      "à°£à°ľ": 3741,
      "à°£à°Ńà°¯": 3742,
      "à°¹à°²à°ķ": 3743,
      "à°¹à°ªà°°": 3744,
      "čĊĠčĊĠĠĠĠĠĠĠĠ": 3745,
      "Ġà°ľà°²à°¸": 3746,
      "Ġà°īà°·à°¨": 3747,
      "Ġà°īà°°à°ķà°²": 3748,
      "à°¾à°Ĥ.....": 3749,
      "à°µà°°à°¹": 3750,
      "Ġà°ıà°¹": 3751,
      "Ġà°ıà°Łà°µ": 3752,
      "à°Ńà°°à°®": 3753,
      "à°Ńà°°à°¤": 3754,
      "Ġà°¤à°¨à°ªà°Ł": 3755,
      "à°²à°¨à°¯": 3756,
      "Ġà°Ĵà°ķà°²": 3757,
      "à°¦à°°à°Ł": 3758,
      "Ġà°¹à°ľ": 3759,
      "Ġà°¹à°¯à°Ĺ": 3760,
      "Ġà°µà°ļà°¨à°®": 3761,
      "à°ħà°ĸ": 3762,
      "à°ħà°¯à°¨": 3763,
      "à°¿,\"": 3764,
      "Ġà°ħà°¤à°¨à°ķ": 3765,
      "à°²à°ķà°¦": 3766,
      "Ġà°Īà°ķà°²": 3767,
      "à°¥à°ª": 3768,
      "à°¥à°²à°ķ": 3769,
      "à°¥à°ªà°¡": 3770,
      "à°¥à°¨à°¨": 3771,
      "à°¥à°¨à°Ĺ": 3772,
      "Ġà°¡à°µ": 3773,
      "Ġà°ħà°¦à°¯": 3774,
      "Ġà°ħà°¦à°¨à°ª": 3775,
      "Ġà°®à°°à°¦à°³": 3776,
      "Ġà°«à°²à°ª": 3777,
      "à°®à°¨à°¨": 3778,
      "à°Łà°°à°¯": 3779,
      "à°°à°ķà°°": 3780,
      "à°°à°ķà°³": 3781,
      "à°¦à°¨à°µà°¨": 3782,
      "Ġà°ªà°°à°²": 3783,
      "Ġà°ªà°°à°¬": 3784,
      "Ġà°ħà°°à°¬": 3785,
      "Ġà°ħà°°à°µà°¡": 3786,
      "Ġà°ħà°°à°µà°ķ": 3787,
      "à°°à°¤à°ª": 3788,
      "Ġà°ħà°²à°®": 3789,
      "Ġà°ħà°²à°µà°¡": 3790,
      "Ġà°ķà°²à°ļ": 3791,
      "Ġà°ķà°²à°Ĺà°¦": 3792,
      "Ġà°ķà°²à°Ĺà°Ł": 3793,
      "à°µà°²à°®": 3794,
      "à°Łà°²à°µà°°à°ķ": 3795,
      "Ġà°ħà°µà°¤à°²à°¨": 3796,
      "à°«à°£": 3797,
      "à°«à°²à°®à°¯": 3798,
      "Ġà°Łà°ªà°Łà°ª": 3799,
      "à°¯à°ķà°³": 3800,
      "à±ĩà°Ĥ,": 3801,
      "à±ĩà°Ĥ...": 3802,
      "à±ĩà°Ĥ!\"": 3803,
      "Ġà°ªà°¡à°Ĺà°²": 3804,
      "Ġà°ªà°¡à°µà°²à°¸": 3805,
      "Ġà°ħà°ªà°ļ": 3806,
      "à°¨à°¦à°Ł": 3807,
      "à°¨à°¦à°¯": 3808,
      "à°ªà°Łà°®": 3809,
      "à°¬à°¡à°Ł": 3810,
      "à°ķà°°à°¯": 3811,
      "Ġà°ĵà°¹": 3812,
      "à°ķà°ªà°°": 3813,
      "Ġà°µà°¸à°ª": 3814,
      "à°ıà°¨": 3815,
      "Ġà°¨à°µà°ķà°³": 3816,
      "à°·à°£à°²à°¤": 3817,
      "à±ģ.\"\"": 3818,
      "Ġà°§à°¨à°ª": 3819,
      "à°ĩà°®": 3820,
      "à°ĩà°ķà°¨": 3821,
      "à°¤à°ķà°ķ": 3822,
      "à°°à°£à°²": 3823,
      "à°²à°²à°ª": 3824,
      "à°²à°²à°¯": 3825,
      "à°İà°Ĺ": 3826,
      "à°°à°µà°¬": 3827,
      "à°°à°µà°£": 3828,
      "à°µà°¤à°¹": 3829,
      "à°¡à°²à°ª": 3830,
      "Ġà°Ĭà°¡à°¦": 3831,
      "à°µà°¨à°¸": 3832,
      "à°Łà°¨à°°": 3833,
      "à°µà°ļà°¨à°®": 3834,
      "à°¤à°°à°«": 3835,
      "à°ŀà°¦": 3836,
      "à°ŀà°Ń": 3837,
      "à°ŀà°ķà°°": 3838,
      "à°¡à°µà°²à°¨": 3839,
      "Ġà°İà°¦à°®": 3840,
      "Ġà°Ĩà°¯à°¨à°µ": 3841,
      "à°łà°¤": 3842,
      "Ġà°ļà°¦à°µà°²": 3843,
      "Ġà°ļà°¦à°µà°Ĺ": 3844,
      "Ġà°¨à°¡à°µà°²": 3845,
      "à°¯à°¸à°®": 3846,
      "à±ģ?\"\"": 3847,
      "à°²à°¬à°¡à°¤": 3848,
      "à°²à°¬à°¡à°Ĺà°²": 3849,
      "Ġà°Ĩà°Ĺà°¨": 3850,
      "à±Ģ!'": 3851,
      "à°³à°¨à°°": 3852,
      "ĠĠĠĠĠĠĠĠĠĠĠĠĠĠĠĠĠĠĠĠĠĠĠĠĠĠĠĠĠĠ": 3853,
      "à±Ĥ!'": 3854,
      "à°¿--": 3855,
      "Ġà°¤à°®à°µ": 3856,
      "Ġà°Ĳà°°à°¨": 3857,
      "à°®à°Ĺà°µ": 3858,
      "à°¦à°Ĺà°¦": 3859,
      "Ġà°µà°²à°ªà°¨": 3860,
      "à°Ĥ!'": 3861,
      "à°¹à°¸à°®": 3862,
      "à°¾....!": 3863,
      "à°¾....'": 3864,
      "à°¾......\"": 3865,
      "ĊĊčĊĠĠĠĠĠĠĠĠĠĠĠĠĠ": 3866,
      "ĊĊčĊĠĠĠĠĠĠĠĠĠĠĠĠĠĠ": 3867,
      "Ġà°īà°ªà°ª": 3868,
      "Ġà°īà°ªà°¶à°®à°¨": 3869,
      "à±į....!\"": 3870,
      "à±ģ.....?\"": 3871,
      "à±ģ..........": 3872,
      "Ġà°Ĺà°Łà°Ĺà°Ł": 3873,
      "Ġà°ķà°¨à°¬à°¡à°ķà°ª": 3874,
      "à±ĩ......\"": 3875,
      "à°īà°ª": 3876,
      "à°īà°¯": 3877,
      "Ġà°¬à°¸à°ļ": 3878,
      "Ġà°İà°Ĺà°¬à°¡": 3879,
      "à°Łà°ªà°¡à°°": 3880,
      "à°ļà°Ĺà°²à°®": 3881,
      "à°¤à°Łà°µ": 3882,
      "à°Ĥ\".": 3883,
      "à°Ĳà°¦": 3884,
      "Ġ35": 3885,
      "à°¨à°¡à°ķà°¨": 3886,
      "Ġà°ıà°ķà°µà°ļà°¨": 3887,
      "à°¿'.": 3888,
      "à±ĭ....?": 3889,
      "Ġà°ķà°µà°·": 3890,
      "à°Ĥ--": 3891,
      "Ġà°İà°¡à°¬": 3892,
      "à±Ĥ?'": 3893,
      "à±ĩ?'": 3894,
      "Ġà°ľà°²à°ľ": 3895,
      "Ġà°ľà°²à°§": 3896,
      "Ġ420": 3897,
      "Ġà°®à°°à°£à°µ": 3898,
      "Ġà°ªà°Ĺà°²à°ķ": 3899,
      "Ġà°ªà°Ĺà°¬à°Ł": 3900,
      "Ġà°¬à°¯à°Łà°ªà°¡à°¤": 3901,
      "Ġà°¬à°¯à°Łà°ªà°¡à°Ł": 3902,
      "à±Ģ?'": 3903,
      "à°¾.....!": 3904,
      "à°ªà°ļà°¤": 3905,
      "à°µà°²à°¨à°¨": 3906,
      "Ġà°µà°¦à°²à°²": 3907,
      "Ġà°ħà°µà°¸à°°à°®à°¨": 3908,
      "Ġ90": 3909,
      "à°¨à°¬à°¡à°Ĺ": 3910,
      "à°¦à°¬à°Ĺà°¤": 3911,
      "à±ĩ.....?": 3912,
      "à°ªà°Ĺà°²à°¡": 3913,
      "Ġà°ľà°°à°Ĺà°ķà°ª": 3914,
      "Ġà°ľà°°à°Ĺà°µà°ļ": 3915,
      "Ġà°¸à°¬à°¬": 3916,
      "à±ĩà°Ĥ?...": 3917,
      "à±ģ__\"": 3918,
      "ĠĠĠĠĠĠĠĠĠĠĠĠĠĠĠĠĠĠĠĠĠĠĠĠĠĠĠĠĠĠĠĠĠĠĠ": 3919,
      "Ġà°Ĩà°¦à°°à°£": 3920,
      "à°¡à°Ĺà°²à°°": 3921,
      "à±Ģ-\"": 3922,
      "à°µà°¶à°¤": 3923,
      "ine": 3924,
      "Ġare": 3925,
      "Ġà°®à°¡à°¤à°²": 3926,
      "à°¿__\"": 3927,
      "Ġà°¤à°Ĺà°²à°¬": 3928,
      "Ġchan": 3929,
      "one": 3930,
      "čĊĠĠĠĠĠĠĠĠĠĠĠĠĠĠĠĠĠĠĠĠĠĠĠĠĠĠĠĠĠĠ": 3931,
      "čĊĠĠĠĠĠĠĠĠĠĠĠĠĠĠĠĠĠĠĠĠĠĠĠĠĠĠ": 3932,
      "Ġst": 3933,
      "à°¬à°¯à°Łà°ķ": 3934,
      "Ġà°°à°£à°°": 3935,
      "ĠAN": 3936,
      "Ġof": 3937,
      "ary": 3938,
      "à°¡à°ķà°²à°²": 3939,
      "tic": 3940,
      "ĠTO": 3941,
      "Ġà°Ĩà°¬à°Ĺ": 3942,
      "Ġà°ķà°¨à°¬à°°à°ļ": 3943,
      "à°Ńà°¯à°ªà°¡à°ķ": 3944,
      "Ġà°Ĩà°ļà°°à°£à°²": 3945,
      "Ġà°ħà°¨à°µà°¸à°°à°®à°¨": 3946,
      "Ġchann": 3947,
      "!....": 3948,
      ",,": 3949,
      "15": 3950,
      "17": 3951,
      "33": 3952,
      "92": 3953,
      "?'": 3954,
      "HIN": 3955,
      "ak": 3956,
      "at": 3957,
      "bs": 3958,
      "ep": 3959,
      "ld": 3960,
      "og": 3961,
      "os": 3962,
      "ov": 3963,
      "ro": 3964,
      "ru": 3965,
      "ris": 3966,
      "rea": 3967,
      "rom": 3968,
      "ste": 3969,
      "th": 3970,
      "ty": 3971,
      "ur": 3972,
      "ĊĠ": 3973,
      "ĊĊĊčĊĠ": 3974,
      "Ġ;": 3975,
      "ĠU": 3976,
      "ĠY": 3977,
      "Ġon": 3978,
      "Ġhe": 3979,
      "Ġor": 3980,
      "ĠĊĊčĊĠĠ": 3981,
      "ĠRE": 3982,
      "Ġun": 3983,
      "à°Ļ": 3984,
      "à±į___": 3985,
      "à°¿|": 3986,
      "à±ģ____": 3987,
      "à°¾;": 3988,
      "à°¾à°ĥ\"": 3989,
      "à°¨à°§": 3990,
      "à°¨à°®à°¨": 3991,
      "à°¨à°ķà°²": 3992,
      "à°¨à°°à°¯": 3993,
      "à°¨à°¤à°°": 3994,
      "à°¨à°¤à°¤": 3995,
      "à°°à°ļà°¯": 3996,
      "à°°à°¬à°²": 3997,
      "à°²à°¶": 3998,
      "à°²à°°à°ķ": 3999,
      "à°²à°¬à°°": 4000,
      "à°ķà°®à°²": 4001,
      "à°ķà°¤à°Ĺ": 4002,
      "à°ķà°³à°²": 4003,
      "à°ķà°¬à°Ł": 4004,
      "à°ķà°¤à°ª": 4005,
      "à°ķà°§à°²": 4006,
      "à°¦à°ķà°¡": 4007,
      "à°¦à°ªà°¨": 4008,
      "à°¦à°¸à°²": 4009,
      "à°¦à°µà°¦": 4010,
      "à°¦à°¯à°Ĺ": 4011,
      "à°¦à°Ńà°°": 4012,
      "à°¦à°Ńà°®": 4013,
      "à±ĩ)": 4014,
      "à°¡à°³": 4015,
      "à°¡à°ªà°¡": 4016,
      "à°¡à°¸à°°": 4017,
      "à°¡à°µà°¡": 4018,
      "à°¡à°®à°¯": 4019,
      "à°¡à°ªà°ķ": 4020,
      "à°¡à°¦à°²à°ļ": 4021,
      "à°Łà°¨à°ķ": 4022,
      "à°Łà°¤à°¡": 4023,
      "à°Łà°Ĺà°²à°¦": 4024,
      "à°µà°²à°ķ": 4025,
      "à°µà°Ĺà°²à°°": 4026,
      "à°®à°ªà°Ł": 4027,
      "à°®à°¤à°²": 4028,
      "à°®à°ľà°¨": 4029,
      "à°®à°ªà°¤": 4030,
      "à°®à°µà°¦": 4031,
      "à°®à°§à°¨": 4032,
      "à°®à°ķà°°à°£": 4033,
      "à°¯à°¡à°¨": 4034,
      "à°¯à°ļà°ķ": 4035,
      "à°¯à°¬à°Ł": 4036,
      "à°¯à°§à°¨": 4037,
      "à°Ĺà°¨à°¨": 4038,
      "à°Ĺà°¡à°¨": 4039,
      "à°ļà°Ń": 4040,
      "à°ļà°²à°ķ": 4041,
      "à°ļà°°à°®": 4042,
      "à°ļà°²à°®à°¯": 4043,
      "Ġà°ħà°²à°¨": 4044,
      "Ġà°ħà°®à°¨": 4045,
      "Ġà°ħà°Ĺà°¤": 4046,
      "Ġà°ħà°¥à°°": 4047,
      "Ġà°ħà°°à°®à°°": 4048,
      "à±Ģ..": 4049,
      "à±Ģà°ģ": 4050,
      "Ġà°µà°ķà°Ł": 4051,
      "Ġà°ķà°Ń": 4052,
      "Ġà°ķà°°à°®": 4053,
      "Ġà°ķà°°à°¤": 4054,
      "Ġà°ķà°¡à°¦": 4055,
      "Ġà°ķà°¸à°²": 4056,
      "Ġà°ªà°µà°¨": 4057,
      "Ġà°®à°«": 4058,
      "Ġà°®à°Łà°¨": 4059,
      "Ġà°®à°Ĺà°¤": 4060,
      "Ġà°®à°¸à°Ĺ": 4061,
      "à±Ĥ..": 4062,
      "čĊĠĠĠĠĠĠĠĠ": 4063,
      "čĊĠĠĠĠĠĠĠĠĠĠĠ": 4064,
      "čĊĠĠĠĠĠĠ": 4065,
      "Ġà°ļà°Łà°°": 4066,
      "Ġà°ļà°·à°ķà°®": 4067,
      "Ġà°¨à°°à°®": 4068,
      "Ġà°¤à°¡à°µ": 4069,
      "Ġà°¤à°¬à°²": 4070,
      "à°³à°¸": 4071,
      "à°³à°ªà°²": 4072,
      "à°³à°µà°¦": 4073,
      "à°³à°¬à°Ł": 4074,
      "à°³à°Ĺà°ķ": 4075,
      "à°³à°Ĺà°²à°¨": 4076,
      "Ġà°¸à°®à°¨": 4077,
      "Ġà°Ĩà°Ń": 4078,
      "Ġà°Ĩà°ªà°Ł": 4079,
      "Ġà°Ĩà°¤à°¨": 4080,
      "Ġà°Ĩà°¡à°¨": 4081,
      "Ġ\"-": 4082,
      "à°·à°ļ": 4083,
      "à°·à°®à°Ĺ": 4084,
      "à°¬à°°à°¤": 4085,
      "Ġà°°à°¹à°¦": 4086,
      "ĊčĊĠĠĠ": 4087,
      "ĊčĊĠĠĠĠĠĠĠĠĠĠĠĠĠĠĠ": 4088,
      "Ġà°Ĺà°£à°®": 4089,
      "à°ľà°²à°®": 4090,
      "à°ľà°¸à°®": 4091,
      "à°ľà°ķà°¤": 4092,
      "Ġà°ħà°¨à°¦": 4093,
      "Ġà°ħà°¨à°ª": 4094,
      "à°¶à°Ń": 4095,
      "à°¶à°¯à°®": 4096,
      "à°¶à°®à°¯": 4097,
      "à°¶à°Ńà°ķ": 4098,
      "ĠĠčĊĠčĊ": 4099,
      "Ġà°¬à°«": 4100,
      "Ġà°¬à°ł": 4101,
      "Ġà°¦à°¨": 4102,
      "Ġà°¦à°²": 4103,
      "à±Ī...": 4104,
      "à±Ī...\"": 4105,
      "Ġà°İà°ľ": 4106,
      "Ġà°İà°Ĺà°°à°Ĺ": 4107,
      "à°§à°¦": 4108,
      "à°§à°°à°¹": 4109,
      "à°§à°ķà°¤": 4110,
      "à°£à°ķà°²": 4111,
      "à°¹à°¯": 4112,
      "à°¹à°¶": 4113,
      "à°¹à°ªà°¡": 4114,
      "à°¹à°¨à°®": 4115,
      "ĠčĊĠĠĠĠ": 4116,
      "ĠčĊĠč": 4117,
      "ĠčĊĠĠĠĠĠĠĠĠĠĠĠĠĠ": 4118,
      "ĠčĊĠĠĠĠĠĠĠĠĠĠĠ": 4119,
      "čĊĠčĊĠĠĠĠĠĠĠĠĠĠĠĠĠĠ": 4120,
      "čĊĠčĊĠĠĠĠĠĠĠĠĠĠĠ": 4121,
      "čĊĠčĊĠĠĠĠĠĠĠĠĠĠ": 4122,
      "čĊĠčĊĠĠĠĠĠĠĠĠĠ": 4123,
      "Ġà°ľà°¯à°¸": 4124,
      "Ġà°ľà°¬à°°": 4125,
      "Ġà°ľà°²à°°": 4126,
      "Ġà°īà°ªà°°": 4127,
      "Ġà°īà°ªà°®": 4128,
      "à°µà°°à°ķà°Ł": 4129,
      "Ġà°ıà°¤": 4130,
      "Ġà°ıà°ķà°¤": 4131,
      "Ġà°ıà°¬à°¦": 4132,
      "à±Ĩà°Ĥ,": 4133,
      "à±Ĩà°Ĥ...": 4134,
      "à±Ĩà°Ĥ?\"": 4135,
      "...?": 4136,
      "Ġà°¶à°ķà°²": 4137,
      "Ġà°¶à°¬à°°": 4138,
      "à°Ńà°£": 4139,
      "à°Ńà°®à°µ": 4140,
      "Ġà°Ĵà°¨": 4141,
      "Ġà°Ĵà°¡à°²": 4142,
      "Ġà°¤à°¨à°µà°²": 4143,
      "Ġà°¤à°¨à°ªà°¨": 4144,
      "Ġà°¤à°¨à°Ĺà°¦": 4145,
      "Ġà°Ńà°¯à°¸": 4146,
      "à°²à°¨à°²": 4147,
      "à°¦à°°à°ķà°ª": 4148,
      "Ġà°¯à°°": 4149,
      "Ġà°¯à°¯": 4150,
      "Ġà°®à°¨à°¯": 4151,
      "Ġà°®à°¨à°¦à°Ĺ": 4152,
      "Ġà°¹à°¬": 4153,
      "Ġà°¹à°¹à°¹": 4154,
      "Ġà°Ĩà°®à°¡à°¦": 4155,
      "à°ħà°²à°ķ": 4156,
      "à°ħà°¡à°Ĺ": 4157,
      "à°ħà°¨à°µà°¸à°°": 4158,
      "à°²à°ķà°ķ": 4159,
      "à°¥à°Ĺ": 4160,
      "à°¥à°ªà°°": 4161,
      "à°°à°®à°Ł": 4162,
      "à°°à°®à°°à°ķ": 4163,
      "Ġà°¡à°Ĺ": 4164,
      "à°ªà°¡à°ķà°ª": 4165,
      "à°ķà°¡à°®": 4166,
      "Ġà°®à°°à°ķ": 4167,
      "Ġà°ħà°¯à°¸": 4168,
      "à°Łà°°à°¨": 4169,
      "Ġà°ħà°¡à°Ĺà°°": 4170,
      "à°°à°ķà°µà°ļ": 4171,
      "à°¦à°¨à°·": 4172,
      "à°ĸà°¸": 4173,
      "à°ĸà°²à°¤": 4174,
      "Ġà°ħà°°à°µà°Ĺ": 4175,
      "Ġà°ķà°¨à°ķà°²à°¤": 4176,
      "Ġà°¤à°²à°¯": 4177,
      "Ġà°¤à°²à°Ĺà°¡": 4178,
      "Ġà°ħà°²à°Ĺ": 4179,
      "Ġà°ķà°²à°¬": 4180,
      "Ġà°ķà°²à°¹": 4181,
      "à°µà°²à°¤": 4182,
      "Ġà°ħà°µà°¶": 4183,
      "Ġà°ħà°µà°Łà°®": 4184,
      "à°«à°°à°µ": 4185,
      "à±į.'": 4186,
      "à±į.,": 4187,
      "à±ĩà°Ĥ....\"": 4188,
      "Ġà°ªà°¡à°Łà°®": 4189,
      "Ġà°ħà°ªà°¶à°ķ": 4190,
      "à°¸à°°à°¯": 4191,
      "à°ķà°°à°ª": 4192,
      "à°¤à°®à°¦": 4193,
      "à°¤à°®à°Ł": 4194,
      "à°Ĥ.'": 4195,
      "Ġà°ľà°°à°Ĺà°µ": 4196,
      "Ġà°ľà°°à°ľà°°": 4197,
      "à°¯à°²à°°": 4198,
      "à°¯à°²à°²": 4199,
      "à°¨à°µà°¦à°¨": 4200,
      "à°ķà°²à°Ĺ": 4201,
      "à°¯à°Łà°¨": 4202,
      "Ġà°ķà°³à°¨": 4203,
      "Ġà°ķà°³à°ķà°³à°²": 4204,
      "Ġà°ĩà°¦à°¯": 4205,
      "Ġà°Ĩà°²à°ª": 4206,
      "à°ıà°²": 4207,
      "à°ıà°Ł": 4208,
      "à°ıà°¦à°¨": 4209,
      "Ġà°¨à°µà°ķ": 4210,
      "Ġà°¨à°µà°®": 4211,
      "Ġà°¨à°µà°ľ": 4212,
      "à°¨à°¨à°¨": 4213,
      "à°¤à°²à°ļ": 4214,
      "à°ķà°¨à°¬à°¡": 4215,
      "à°¦à°²à°²": 4216,
      "à°¨à°ķà°¸": 4217,
      "Ġà°¤à°ªà°®": 4218,
      "Ġà°§à°¡": 4219,
      "à°¤à°ķà°³": 4220,
      "à°¤à°ķà°°à°®": 4221,
      "à°ªà°²à°µ": 4222,
      "à°°à°¸à°®": 4223,
      "à°°à°¸à°ĸ": 4224,
      "à°°à°£à°§": 4225,
      "à°°à°µà°ļ": 4226,
      "à°°à°µà°¶": 4227,
      "à°°à°µà°ļà°¨à°®": 4228,
      "à°Ĩà°§": 4229,
      "à°Ĩà°ķà°²": 4230,
      "à°µà°¤à°°": 4231,
      "à°ļà°¨à°²à°²": 4232,
      "à°®à°²à°¯": 4233,
      "Ġà°Ĭà°ļà°²": 4234,
      "à±ģ!...": 4235,
      "à°µà°¨à°ľ": 4236,
      "à°²à°®à°Ł": 4237,
      "à°¨à°ªà°³": 4238,
      "Ġà°ħà°¸à°¤": 4239,
      "à°¿!....": 4240,
      "Ġà°ķà°¦à°²à°¨": 4241,
      "Ġà°Ĩà°°à°¨": 4242,
      "Ġà°Ĩà°°à°¡": 4243,
      "à°ŀà°¨": 4244,
      "à°ŀà°µ": 4245,
      "à°ŀà°Ĺ": 4246,
      "à°ŀà°¶": 4247,
      "à°ľà°¨à°¶": 4248,
      "à°¡à°¨à°¯": 4249,
      "à±ģ...'": 4250,
      "à°¡à°µà°®": 4251,
      "à°¡à°µà°¸": 4252,
      "Ġà°İà°¦à°Ĺà°²": 4253,
      "à°łà°²": 4254,
      "à°łà°Ĺ": 4255,
      "à°°à°¹à°µ": 4256,
      "à°°à°ªà°¦": 4257,
      "à±ģ?...": 4258,
      "Ġà°ļà°¦à°µà°¸": 4259,
      "Ġà°¨à°¡à°ªà°Ĺà°²": 4260,
      "à°²à°¬à°¡à°Ł": 4261,
      "Ġà°ĸà°ľ": 4262,
      "Ġà°Ĩà°Ĺà°Ł": 4263,
      "Ġà°Ĩà°Ĺà°®": 4264,
      "à°³à°¨à°²": 4265,
      "ĠĠĠĠĠĠĠĠĠĠĠĠĠĠĠĠĠĠĠĠĠĠ": 4266,
      "ĠĠĠĠĠĠĠĠĠĠĠĠĠĠĠĠĠĠĠĠĠ": 4267,
      "à°²à°Ĺà°¨": 4268,
      "à°°à°²à°ļ": 4269,
      "Ġà°Ĺà°¡à°ªà°¦": 4270,
      "Ġà°®à°¹à°²": 4271,
      "Ġà°®à°¹à°¦": 4272,
      "à±ģ....'": 4273,
      "à°¨à°Ĺà°²à°¨": 4274,
      "Ġà°Ĩà°¡à°®à°Ĺ": 4275,
      "à±ģ-'": 4276,
      "à°¯à°µà°¸à°°": 4277,
      "à°°à°Ĺà°µ": 4278,
      "Ġà°¨à°²à°¬": 4279,
      "Ġà°ľà°¨à°µà°°": 4280,
      "à°§à°®à°Ĺ": 4281,
      "Ġà°Ĩà°ªà°®à°¨": 4282,
      "à°Īà°¶": 4283,
      "à°µà°¸à°¨": 4284,
      "à±ģ!\"\"": 4285,
      "Ġà°Ĳà°²": 4286,
      "Ġà°Ĳà°µ": 4287,
      "Ġà°Ĳà°Łà°®": 4288,
      "à°Ńà°µà°ª": 4289,
      "à°Ĵà°¸": 4290,
      "à°Ĵà°³": 4291,
      "à°Ĵà°ķà°ª": 4292,
      "Ġà°¬à°²à°¸": 4293,
      "à°¾...!": 4294,
      "à±ĭ!'": 4295,
      "à±į...!": 4296,
      "à±į...!\"": 4297,
      "Ġà°µà°²à°µà°²": 4298,
      "Ġà°ļà°²à°¸à°°": 4299,
      "à°¨à°¸à°¤": 4300,
      "à°¨à°¸à°¬": 4301,
      "à°·à°²à°¦": 4302,
      "ĊĊčĊĠĠĠĠĠĠĠ": 4303,
      "ĊĊčĊĠĠĠĊ": 4304,
      "à±į.......": 4305,
      "à°µà°Ĺà°²à°¨": 4306,
      "Ġ26": 4307,
      "Ġ27": 4308,
      "à±ĩ.........": 4309,
      "à°ĵà°¯": 4310,
      "à°¯à°£à°Ĺ": 4311,
      "à±ĩ...!": 4312,
      "à±ĩ...?\"": 4313,
      "à°Ľà°ķ": 4314,
      "à°Ľà°®": 4315,
      "à°Ľà°¸": 4316,
      "à°Łà°ªà°¡à°²": 4317,
      "à°Łà°ªà°¡à°Ł": 4318,
      "Ġà°ĺà°²": 4319,
      "à±ģ''": 4320,
      "à±ĭ...?": 4321,
      "Ġ:__": 4322,
      "Ġà°®à°®à°¤à°²": 4323,
      "à°Ĳà°¤": 4324,
      "à°Ĳà°¶": 4325,
      "Ġ37": 4326,
      "à°Łà°µà°²à°¨": 4327,
      "à°Ĥ.......": 4328,
      "à±ĭ\".": 4329,
      "Ġà°®à°Ĺà°¤à°²": 4330,
      "à°ģ!\"": 4331,
      "à°µà°¤à°²à°¤": 4332,
      "à°¢à°¤": 4333,
      "à°¢à°¸": 4334,
      "à°¢à°¨à°®": 4335,
      "à°Ĭà°ª": 4336,
      "Ġà°®à°²à°ļ": 4337,
      "à°·à°¸à°¤": 4338,
      "Ġà°ķà°¦à°²à°¦": 4339,
      "Ġà°ķà°¦à°²à°Ł": 4340,
      "Ġà°ķà°¦à°²à°¬": 4341,
      "à±Ģ.......": 4342,
      "à±Ģ......\"": 4343,
      "Ġà°İà°¡à°®à°ķ": 4344,
      "à°Łà°¬à°¯à°²": 4345,
      "à±ĭ?...": 4346,
      "Ġ48": 4347,
      "Ġà°®à°°à°£à°¶": 4348,
      "čĊĠčĊĠĠĠĠĠĠĠĠĠĠĠĠĠĠĠĠĠĠĠĠĠĠĠĠ": 4349,
      "čĊĠčĊĠĠĠĠĠĠĠĠĠĠĠĠĠĠĠĠĠĠĠĠĠĠĠĠĠĠĠĠĠĠ": 4350,
      "čĊĠčĊĠĠĠĠĠĠĠĠĠĠĠĠĠĠĠĠĠĠĠĠĠĠĠĠĠĠ": 4351,
      "à±ĭ--": 4352,
      "Ġà°®à°¸à°ķà°Ĺ": 4353,
      "čĊĠĠčĊĠĠ": 4354,
      "Ġà°ħà°µà°¤à°²à°µ": 4355,
      "à°¯à°ªà°¡à°²": 4356,
      "à°¯à°ªà°¡à°¤": 4357,
      "à°±à°µ": 4358,
      "Ġ68": 4359,
      "à°ļà°¬à°¡à°Ł": 4360,
      "à°Ĺà°³à°µ": 4361,
      "Ġà°ħà°°à°µà°¬": 4362,
      "à°¯à°µà°²à°¯": 4363,
      "à°°à°¥à°®à°®": 4364,
      "Ġà°Ĩà°¦à°°à°£à°ķ": 4365,
      "Ġà°ħà°²à°¸à°Łà°¤": 4366,
      "Ġà°ĩà°¹à°ª": 4367,
      "Ġà°¬à°¤à°ķà°Ł": 4368,
      "à°ķà°ļà°ļ": 4369,
      "Ġac": 4370,
      "Ġal": 4371,
      "Ġà°ħà°²à°ķà°¨": 4372,
      "Ġà°ĩà°®à°¡à°²": 4373,
      "Ġà°¨à°¡à°µà°¬": 4374,
      "Ġà°¨à°°à°ķà°ª": 4375,
      "Ġà°°à°¥à°ª": 4376,
      "à°ķà°°à°£à°²": 4377,
      "Ġà°ķà°£à°¤à°²": 4378,
      "Ġcon": 4379,
      "à°¦à°°à°ªà°¡à°ķ": 4380,
      "Ġà°Ķà°°": 4381,
      "Ġà°Ķà°·à°§à°®": 4382,
      "ĊčĊĠĠĠĠĠĠĠĠĠĠĠĠĠĠĠĠĠĠĠ": 4383,
      "ĊčĊĠĠĠĠĠĠĠĠĠĠĠĠĠĠĠĠĠĠĠĠĠĠĠĠĠĠĠĠ": 4384,
      "ance": 4385,
      "ĠĠĠĠĠĠĠĊ": 4386,
      "à°¾à°Ĥ......\"": 4387,
      "Ġdo": 4388,
      "à±ģà°ģ!": 4389,
      "Ġme": 4390,
      "ĠIt": 4391,
      "Ġ*******": 4392,
      "Ġbe": 4393,
      "Ġgo": 4394,
      "Ġ302": 4395,
      "ration": 4396,
      "Ġà°İà°°à°Ĺà°¨à°Ł": 4397,
      "Ġà°Ĺà°ľà°Ĺà°ľà°®à°¨": 4398,
      "olu": 4399,
      "usic": 4400,
      "Ġà°Ĩà°¨à°ķà°Ł": 4401,
      "à°°à°¤à°ķà°¡à°®": 4402,
      "Ġ1948": 4403,
      "Ġ1970": 4404,
      "Ġà°ªà°²à°ķà°¦": 4405,
      "à±Ĥ_\"": 4406,
      "ĠLove": 4407,
      "Ġà°¤à°¹à°¤à°¹à°²": 4408,
      "Ġà°ľà°łà°°": 4409,
      "Ġà°Łà°ķà°Łà°ķ": 4410,
      "ialog": 4411,
      "à°ķà°®à°ķà°ªà°¡": 4412,
      "Ġchannels": 4413,
      "!-": 4414,
      "!!\"": 4415,
      "',": 4416,
      "16": 4417,
      "21": 4418,
      "38": 4419,
      "41": 4420,
      "58": 4421,
      "74": 4422,
      "76": 4423,
      "85": 4424,
      "88": 4425,
      ":\"": 4426,
      "AR": 4427,
      "AY": 4428,
      "BL": 4429,
      "CT": 4430,
      "ED": 4431,
      "ID": 4432,
      "LL": 4433,
      "LES": 4434,
      "RI": 4435,
      "SI": 4436,
      "as": 4437,
      "ate": 4438,
      "ho": 4439,
      "hou": 4440,
      "ive": 4441,
      "iration": 4442,
      "line": 4443,
      "man": 4444,
      "ne": 4445,
      "ow": 4446,
      "pl": 4447,
      "pt": 4448,
      "pon": 4449,
      "ry": 4450,
      "to": 4451,
      "uar": 4452,
      "vid": 4453,
      "ĠH": 4454,
      "ĠJ": 4455,
      "ĠK": 4456,
      "ĠV": 4457,
      "Ġj": 4458,
      "Ġre": 4459,
      "Ġex": 4460,
      "à±¯": 4461,
      "à±į..\"": 4462,
      "à±ģ/": 4463,
      "à°¾à°ģ": 4464,
      "à°¾||": 4465,
      "à°¨à°²à°²": 4466,
      "à°¨à°¡à°ķ": 4467,
      "à°¨à°µà°²à°¸": 4468,
      "à°¨à°§à°°": 4469,
      "à°¨à°¤à°®à°¯": 4470,
      "à°¨à°Ĺà°²à°¦": 4471,
      "à°Ĥ___": 4472,
      "à°°à°²à°®": 4473,
      "à°²à°¸à°°": 4474,
      "à°²à°Ĺà°²": 4475,
      "à°²à°·à°£": 4476,
      "à°²à°¤à°ķ": 4477,
      "à°²à°°à°¦": 4478,
      "à°²à°µà°¡à°®": 4479,
      "à°²à°®à°¨à°¸": 4480,
      "à°ķà°¦à°¨": 4481,
      "à°ķà°µà°²": 4482,
      "à°ķà°µà°ļ": 4483,
      "à°ķà°³à°ķ": 4484,
      "à°ķà°¬à°°": 4485,
      "à°ķà°¥à°²": 4486,
      "à°¦à°¯à°¤": 4487,
      "à°¦à°ªà°¦": 4488,
      "à°¦à°¹à°¸": 4489,
      "à°¦à°¤à°¤": 4490,
      "à°¤à°¥": 4491,
      "à°¤à°¤à°¨": 4492,
      "à°¤à°ķà°²": 4493,
      "à°¤à°°à°µ": 4494,
      "à°¤à°Łà°¨": 4495,
      "à°¤à°ªà°¦": 4496,
      "à±ĩ;": 4497,
      "à°¡à°Ń": 4498,
      "à°¡à°ķà°¡": 4499,
      "à°¡à°¨à°¨": 4500,
      "à°¡à°¨à°®": 4501,
      "à°¡à°ªà°²": 4502,
      "à°¡à°²à°²": 4503,
      "à°¡à°°à°²": 4504,
      "à°Łà°¨à°¨": 4505,
      "à°Łà°ªà°¦": 4506,
      "à°Łà°Ĺà°²à°¡": 4507,
      "à°Łà°ªà°¦à°¹": 4508,
      "à±ĭà°ĥ": 4509,
      "à°ªà°°à°ķ": 4510,
      "à°ªà°ķà°°": 4511,
      "à°ªà°¨à°ķ": 4512,
      "à°ªà°®à°ķ": 4513,
      "à°ªà°ľà°¯": 4514,
      "à°ªà°£à°®": 4515,
      "à°ªà°¶à°ķ": 4516,
      "à°µà°ĸ": 4517,
      "à°µà°£à°®": 4518,
      "à°®à°®à°¨": 4519,
      "à°®à°Ĺà°°": 4520,
      "à°®à°ł": 4521,
      "à°®à°¡à°®": 4522,
      "à°®à°¬à°²": 4523,
      "à°®à°Ńà°¦": 4524,
      "à°®à°Ĺà°²à°®": 4525,
      "à°¯à°·": 4526,
      "à°¯à°ķà°¡": 4527,
      "à°¯à°°à°ķ": 4528,
      "à°¯à°°à°¹": 4529,
      "à°¯à°§à°°": 4530,
      "à°Ĺà°¦à°°": 4531,
      "à°Ĺà°ªà°°": 4532,
      "à°Ĺà°¤à°°": 4533,
      "à°Ĺà°³à°¨": 4534,
      "à°Ĺà°¨à°²": 4535,
      "à°Ĺà°Łà°®": 4536,
      "à°¸à°¦": 4537,
      "à°¸à°²à°¨": 4538,
      "à°¸à°ķà°°": 4539,
      "à°¸à°¨à°¨": 4540,
      "à°¸à°¨à°ķ": 4541,
      "à°¸à°ķà°Ł": 4542,
      "à°¸à°¡à°¨": 4543,
      "à°¸à°ªà°¤": 4544,
      "à°¸à°²à°¤": 4545,
      "à°ļà°³": 4546,
      "à°ļà°¦à°°": 4547,
      "à°ļà°Łà°²": 4548,
      "à°ļà°ķà°¨": 4549,
      "à°ļà°Łà°¨": 4550,
      "à°ļà°®à°¯": 4551,
      "à°ļà°Ĺà°¡": 4552,
      "à°ļà°¨à°µà°¸à°°": 4553,
      "Ġà°ħà°¦à°°": 4554,
      "Ġà°ħà°¥": 4555,
      "Ġà°ħà°¹à°°": 4556,
      "à±Ĩ\"": 4557,
      "à±Ĩ'": 4558,
      "à±Ģ:": 4559,
      "à±Ģà°ĥ": 4560,
      "à±Ģ--": 4561,
      "Ġà°µà°®": 4562,
      "Ġà°µà°ķà°°": 4563,
      "Ġà°µà°¨à°°": 4564,
      "Ġà°µà°ķà°¸": 4565,
      "Ġà°µà°Ĺà°¯": 4566,
      "Ġà°ķà°®à°¨": 4567,
      "Ġà°ķà°µà°¯": 4568,
      "Ġà°ªà°Ń": 4569,
      "Ġà°ªà°łà°¨": 4570,
      "Ġà°®à°¶": 4571,
      "Ġà°®à°ķà°°": 4572,
      "Ġà°®à°Ĺà°°": 4573,
      "Ġà°®à°¤à°¸": 4574,
      "čĊĠĊčĊ": 4575,
      "čĊĠĠĠĠĠĠĠĠĠĠĠĠĠĠ": 4576,
      "čĊĠĠĠĠĠĠĠĠĠ": 4577,
      "Ġà°ļà°¡": 4578,
      "Ġà°ļà°¦à°°": 4579,
      "Ġà°ļà°µà°Ĺ": 4580,
      "Ġà°ļà°°à°£à°®": 4581,
      "Ġà°¨à°§": 4582,
      "Ġà°¨à°¯à°®": 4583,
      "Ġà°¨à°®à°²": 4584,
      "Ġà°¨à°Ĺà°¨": 4585,
      "Ġà°¨à°ľà°°": 4586,
      "à°³à°µà°²": 4587,
      "à°³à°µà°°à°ķ": 4588,
      "à°³à°ªà°¨": 4589,
      "à°³à°Ĺà°²à°¡": 4590,
      "Ġà°¸à°ªà°¤": 4591,
      "Ġà°¸à°²à°¸": 4592,
      "Ġà°¸à°¦à°¨à°®": 4593,
      "Ġà°Ĩà°²à°¨": 4594,
      "Ġà°Ĩà°¯à°®": 4595,
      "Ġà°Ĩà°¤à°°": 4596,
      "Ġà°Ĩà°Ĺà°¤": 4597,
      "Ġ\".....\"": 4598,
      "à±Ĭ...": 4599,
      "à°·à°®à°¨": 4600,
      "à°·à°°à°¤": 4601,
      "à°·à°¹à°¸": 4602,
      "à°·à°Ĺà°Ł": 4603,
      "à°·à°ªà°°à°ļ": 4604,
      "à°¬à°ª": 4605,
      "à°¬à°µà°¤": 4606,
      "à°¬à°²à°µ": 4607,
      "à°¬à°µà°¸à°°": 4608,
      "Ġà°°à°£à°®": 4609,
      "Ġà°°à°¸à°¹": 4610,
      "Ġà°Ĺà°¸": 4611,
      "Ġà°Ĺà°¡à°µ": 4612,
      "Ġà°Ĺà°Ĺà°¨": 4613,
      "Ġà°Ĺà°ľà°°": 4614,
      "Ġà°Ĺà°ľà°²": 4615,
      "Ġà°Ĺà°¡à°µà°ķ": 4616,
      "Ġà°Ĺà°°à°µà°¯": 4617,
      "à°ľà°²à°¨": 4618,
      "à°ľà°¨à°¨": 4619,
      "à°ľà°°à°¸": 4620,
      "à°ľà°¬à°²": 4621,
      "Ġà°ħà°¨à°¡à°®": 4622,
      "Ġà°ħà°¨à°µà°²à°¸": 4623,
      "à°¶à°²à°ķ": 4624,
      "à°¶à°°à°¤": 4625,
      "à°¶à°¨à°ķ": 4626,
      "à°¶à°²à°®": 4627,
      "à°¶à°²à°ª": 4628,
      "Ġà°¬à°²à°°": 4629,
      "Ġà°¬à°¡à°¬": 4630,
      "Ġà°¦à°ª": 4631,
      "Ġà°¦à°µ": 4632,
      "Ġà°¦à°¯à°¨": 4633,
      "Ġà°¦à°¸à°°": 4634,
      "Ġà°¦à°°à°¹": 4635,
      "Ġà°¦à°¹à°¨": 4636,
      "Ġà°ĩà°ķà°²": 4637,
      "Ġà°ĩà°°à°Ĺ": 4638,
      "à±Ī-": 4639,
      "à±Ī!\"": 4640,
      "à±Ī__": 4641,
      "Ġà°²à°µà°°": 4642,
      "Ġà°²à°ĺ": 4643,
      "Ġà°²à°¯à°¬à°¦": 4644,
      "Ġà°İà°³": 4645,
      "Ġà°İà°¥": 4646,
      "Ġà°İà°¡à°¤": 4647,
      "à°§à°¤à°®": 4648,
      "à°§à°¤à°²": 4649,
      "à°§à°ķà°¨": 4650,
      "à°§à°¤à°ķ": 4651,
      "à°§à°°à°£": 4652,
      "à°§à°°à°¨": 4653,
      "à°§à°°à°²": 4654,
      "à°§à°µà°®": 4655,
      "à°§à°µà°ķ": 4656,
      "à°£à°Ń": 4657,
      "à°£à°Ĺà°£": 4658,
      "à°¹à°®à°¨": 4659,
      "à°¹à°¤à°Ĺ": 4660,
      "ĠčĊĠĠĠĠĠĠĠĠĠĠĠĠĠĠĠ": 4661,
      "ĠčĊĠĠĠĠĠĠĠĠĠĠĠĠĠĠĠĠĠ": 4662,
      "čĊĠčĊĠĠĠĠ": 4663,
      "čĊĠčĊĠĠĠĠĠĠĠĠĠĠĠĠĠĠĠ": 4664,
      "Ġà°ľà°ķ": 4665,
      "Ġà°ľà°¹": 4666,
      "Ġà°ľà°²à°ķ": 4667,
      "Ġà°ľà°¯à°®": 4668,
      "Ġà°ľà°ªà°¤": 4669,
      "Ġà°ľà°¤à°Ĺ": 4670,
      "Ġà°īà°®à°¨": 4671,
      "Ġà°īà°«": 4672,
      "Ġà°īà°¡à°ķ": 4673,
      "à°¾à°Ĥ'": 4674,
      "à°µà°°à°¦": 4675,
      "à°µà°°à°µ": 4676,
      "à±Ĩà°Ĥ....": 4677,
      "...?\"": 4678,
      "...!\"": 4679,
      "Ġà°¶à°²": 4680,
      "Ġà°¶à°¸": 4681,
      "Ġà°¶à°°à°Ń": 4682,
      "Ġà°¶à°ªà°¥": 4683,
      "Ġà°¶à°ķà°Łà°®": 4684,
      "Ġà°¶à°łà°Ĺ": 4685,
      "à°Ńà°Ł": 4686,
      "à°Ńà°ľ": 4687,
      "Ġà°Ĵà°Ĺ": 4688,
      "Ġà°Ĵà°¸": 4689,
      "Ġà°Ĵà°²à°ķ": 4690,
      "Ġà°¤à°¨à°Ĺ": 4691,
      "Ġà°¤à°¨à°¬": 4692,
      "Ġà°¤à°¨à°¦à°Ĺ": 4693,
      "Ġà°Ńà°ľ": 4694,
      "Ġà°Ńà°µà°¤": 4695,
      "Ġà°Ĵà°ķà°ªà°¨": 4696,
      "à°¦à°°à°¡": 4697,
      "à°¦à°°à°¬": 4698,
      "à°¦à°°à°£": 4699,
      "à°¦à°°à°£à°ķ": 4700,
      "Ġà°¯à°¬": 4701,
      "Ġà°¯à°®à°²": 4702,
      "Ġà°¯à°ľà°¨": 4703,
      "Ġà°¯à°®à°Ĺ": 4704,
      "....!\"": 4705,
      ".......\"": 4706,
      "Ġà°®à°¨à°¬": 4707,
      "Ġà°®à°¨à°µà°²": 4708,
      "Ġà°®à°¨à°ķà°¨": 4709,
      "Ġà°¹à°°à°¨": 4710,
      "à°ħà°°à°ķ": 4711,
      "à°ħà°®à°²": 4712,
      "à°ħà°ªà°°": 4713,
      "à°ħà°ķà°¸": 4714,
      "à°ħà°¹à°²": 4715,
      "à°ħà°¸à°¹": 4716,
      "Ġà°Īà°Ł": 4717,
      "Ġà°Īà°Ĺà°²": 4718,
      "à°¥à°®à°¨": 4719,
      "à°°à°®à°¸": 4720,
      "à°°à°®à°ľ": 4721,
      "Ġà°¡à°ª": 4722,
      "Ġà°¡à°®": 4723,
      "à°ªà°¡à°ª": 4724,
      "à°ªà°¡à°Ĺ": 4725,
      "à°ªà°¡à°¸": 4726,
      "à°ªà°¡à°¬": 4727,
      "à°ªà°¡à°µà°ļ": 4728,
      "à°ķà°¡à°ªà°¡": 4729,
      "Ġà°ħà°¦à°Ł": 4730,
      "Ġà°«à°²à°¸": 4731,
      "Ġà°«à°²à°ķà°®": 4732,
      "à°®à°¨à°®à°¨": 4733,
      "Ġà°ħà°¡à°Ĺà°¦": 4734,
      "à°°à°ķà°ķà°ª": 4735,
      "à°¦à°¨à°²à°¨": 4736,
      "Ġà°ªà°°à°µà°³": 4737,
      "à°ĸà°Ĺ": 4738,
      "à°ĸà°Ń": 4739,
      "à°ĸà°²à°ķ": 4740,
      "à°ĸà°®à°¨": 4741,
      "à°ĸà°¦à°®": 4742,
      "à°ĸà°ķà°°à°®": 4743,
      "Ġà°ħà°°à°µà°¸": 4744,
      "Ġà°ħà°°à°µà°¯": 4745,
      "Ġà°ħà°°à°Ĺà°¦": 4746,
      "Ġà°ķà°¨à°²": 4747,
      "Ġà°ķà°¨à°ķà°¦": 4748,
      "Ġà°¤à°²à°ªà°ķ": 4749,
      "à°¯à°¨à°µ": 4750,
      "Ġà°ķà°²à°²à°ķ": 4751,
      "Ġà°ķà°²à°¬à°¡": 4752,
      "Ġà°ķà°²à°¤à°²": 4753,
      "Ġà°ķà°²à°¯à°ļ": 4754,
      "à°µà°²à°²": 4755,
      "à°µà°²à°µ": 4756,
      "à°Łà°²à°ļ": 4757,
      "Ġà°ħà°µà°¬": 4758,
      "Ġà°ħà°µà°²à°ķ": 4759,
      "Ġà°Łà°¨": 4760,
      "Ġà°Łà°«": 4761,
      "à°¯à°ķà°¦": 4762,
      "à°¯à°ķà°¶": 4763,
      "Ġà°ªà°¡à°ķà°Ł": 4764,
      "Ġà°ªà°¡à°ķà°®": 4765,
      "Ġà°ħà°ªà°ľà°¯": 4766,
      "Ġà°ħà°ªà°¹à°°": 4767,
      "à°¨à°¦à°¤à°¨": 4768,
      "à°¸à°°à°°": 4769,
      "à°¸à°°à°µ": 4770,
      "à°¸à°°à°³": 4771,
      "à°¾!...": 4772,
      "à°¾??\"": 4773,
      "à°¾?....\"": 4774,
      "Ġà°¸à°°à°³à°®": 4775,
      "à°ķà°°à°Ĺ": 4776,
      "Ġà°ĵà°ļ": 4777,
      "Ġà°ĵà°ªà°ķ": 4778,
      "Ġà°ĵà°¬à°°": 4779,
      "à°Ĺà°°à°£": 4780,
      "à°¤à°®à°ķ": 4781,
      "à°¤à°®à°¤": 4782,
      "à°¤à°®à°ª": 4783,
      "à°¤à°¨à°ª": 4784,
      "à°¤à°¨à°ªà°¡": 4785,
      "à°¤à°¨à°®à°¯": 4786,
      "Ġà°ľà°°à°ª": 4787,
      "à°Ĺà°²à°¤": 4788,
      "à°Ĺà°²à°µà°¨": 4789,
      "à°Ĺà°²à°°à°¨": 4790,
      "à°¨à°µà°Ĺ": 4791,
      "à°ķà°²à°¦": 4792,
      "Ġà°ķà°³à°²à°ķ": 4793,
      "Ġà°İà°ķà°¨": 4794,
      "Ġà°¤à°°à°Ĺà°Ł": 4795,
      "à°ıà°¸": 4796,
      "à°ıà°®à°²": 4797,
      "Ġà°ħà°¤à°¡à°²": 4798,
      "Ġà°ħà°¤à°¡à°ķ": 4799
    },
    "merges": [
      [
        "à",
        "°"
      ],
      [
        "à",
        "±"
      ],
      [
        "Ġ",
        "à°"
      ],
      [
        "à±",
        "į"
      ],
      [
        "à°",
        "¿"
      ],
      [
        "à±",
        "ģ"
      ],
      [
        "à°",
        "¾"
      ],
      [
        "à°",
        "¨"
      ],
      [
        "à°",
        "Ĥ"
      ],
      [
        "à°",
        "°"
      ],
      [
        "à°",
        "²"
      ],
      [
        "à°",
        "ķ"
      ],
      [
        "à°",
        "¦"
      ],
      [
        "à°",
        "¤"
      ],
      [
        "à±",
        "ĩ"
      ],
      [
        "à°",
        "¡"
      ],
      [
        "à°",
        "Ł"
      ],
      [
        "à±",
        "ĭ"
      ],
      [
        "à°",
        "ª"
      ],
      [
        "à°",
        "µ"
      ],
      [
        "à°",
        "®"
      ],
      [
        "à°",
        "¯"
      ],
      [
        "à°",
        "Ĺ"
      ],
      [
        "à°",
        "¸"
      ],
      [
        "à°",
        "ļ"
      ],
      [
        "Ġà°",
        "ħ"
      ],
      [
        "à±",
        "Ĩ"
      ],
      [
        "à±",
        "Ģ"
      ],
      [
        "Ġà°",
        "µ"
      ],
      [
        "Ġà°",
        "ķ"
      ],
      [
        "Ġà°",
        "ª"
      ],
      [
        "Ġà°",
        "®"
      ],
      [
        "à±",
        "Ĥ"
      ],
      [
        "č",
        "Ċ"
      ],
      [
        "Ġà°",
        "ļ"
      ],
      [
        "Ġà°",
        "¨"
      ],
      [
        "à°¿",
        "à°Ĥ"
      ],
      [
        "à±ģ",
        "."
      ],
      [
        "Ġà°",
        "¤"
      ],
      [
        "à°",
        "³"
      ],
      [
        ".",
        "."
      ],
      [
        "Ġà°",
        "¸"
      ],
      [
        "à°¿",
        "."
      ],
      [
        "à±ģ",
        "à°Ĥ"
      ],
      [
        "Ġà°",
        "Ĩ"
      ],
      [
        "Ġ",
        "\""
      ],
      [
        "à±",
        "Ĭ"
      ],
      [
        "à°",
        "·"
      ],
      [
        "à°",
        "¬"
      ],
      [
        "Ġà°",
        "°"
      ],
      [
        "Ċ",
        "čĊ"
      ],
      [
        "Ġà°",
        "Ĺ"
      ],
      [
        "à°",
        "ľ"
      ],
      [
        "Ġà°ħ",
        "à°¨"
      ],
      [
        "à°",
        "¶"
      ],
      [
        "Ġ",
        "Ġ"
      ],
      [
        "Ġà°",
        "¬"
      ],
      [
        "Ġà°",
        "¦"
      ],
      [
        "Ġà°",
        "ĩ"
      ],
      [
        "à±",
        "Ī"
      ],
      [
        "Ġà°",
        "²"
      ],
      [
        "Ġà°",
        "İ"
      ],
      [
        "à°",
        "§"
      ],
      [
        "à°",
        "£"
      ],
      [
        "à°",
        "¹"
      ],
      [
        "Ġ",
        "čĊ"
      ],
      [
        "čĊ",
        "ĠčĊ"
      ],
      [
        "Ġà°",
        "ľ"
      ],
      [
        "Ġà°",
        "ī"
      ],
      [
        "à°¾",
        "à°Ĥ"
      ],
      [
        "à°µ",
        "à°°"
      ],
      [
        "Ġà°",
        "ı"
      ],
      [
        "à±Ĩ",
        "à°Ĥ"
      ],
      [
        "Ġà°ħ",
        "à°¤"
      ],
      [
        "..",
        "."
      ],
      [
        "ĠĠ",
        "ĠĠ"
      ],
      [
        "Ġà°",
        "¶"
      ],
      [
        "à°",
        "Ń"
      ],
      [
        "Ġà°",
        "Ĵ"
      ],
      [
        "Ġà°¤",
        "à°¨"
      ],
      [
        "?",
        "\""
      ],
      [
        "Ġà°",
        "Ń"
      ],
      [
        "à°²",
        "à°¨"
      ],
      [
        "Ġà°Ĵ",
        "à°ķ"
      ],
      [
        "à°¦",
        "à°°"
      ],
      [
        "Ġà°",
        "¯"
      ],
      [
        "..",
        ".."
      ],
      [
        "Ġà°®",
        "à°¨"
      ],
      [
        "Ġà°",
        "¹"
      ],
      [
        "Ġà°Ĩ",
        "à°®"
      ],
      [
        "Ġà°µ",
        "à°ļ"
      ],
      [
        "à°",
        "ħ"
      ],
      [
        "à°¿",
        ","
      ],
      [
        "Ġà°ħà°¤",
        "à°¨"
      ],
      [
        "à±",
        "ĥ"
      ],
      [
        "à°²",
        "à°ķ"
      ],
      [
        "Ġà°",
        "Ī"
      ],
      [
        "à°",
        "¥"
      ],
      [
        "à±Ĭ",
        "à°Ĥ"
      ],
      [
        "à°°",
        "à°®"
      ],
      [
        "à°¨",
        "à°Ł"
      ],
      [
        "Ġà°",
        "¡"
      ],
      [
        "à±ģ",
        ","
      ],
      [
        "à°ª",
        "à°¡"
      ],
      [
        "à°ķ",
        "à°¡"
      ],
      [
        "Ġà°ħ",
        "à°¦"
      ],
      [
        "Ġà°®",
        "à°°"
      ],
      [
        "!",
        "\""
      ],
      [
        "Ġà°",
        "«"
      ],
      [
        "Ġà°ħ",
        "à°¯"
      ],
      [
        "à±ĭ",
        "à°Ĥ"
      ],
      [
        "à°®",
        "à°¨"
      ],
      [
        "à°Ł",
        "à°°"
      ],
      [
        "Ġà°ħ",
        "à°¡"
      ],
      [
        "à°°",
        "à°ķ"
      ],
      [
        "à°¦",
        "à°¨"
      ],
      [
        "Ġà°ª",
        "à°°"
      ],
      [
        "à°",
        "ĸ"
      ],
      [
        "Ġà°ħ",
        "à°°"
      ],
      [
        "Ġà°ķ",
        "à°¨"
      ],
      [
        "à°°",
        "à°¤"
      ],
      [
        "Ġà°¤",
        "à°²"
      ],
      [
        "Ġà°ħ",
        "à°²"
      ],
      [
        "à°¯",
        "à°¨"
      ],
      [
        "Ġà°ķ",
        "à°²"
      ],
      [
        "à°µ",
        "à°²"
      ],
      [
        "à°Ł",
        "à°²"
      ],
      [
        "Ġà°ħ",
        "à°µ"
      ],
      [
        "à°",
        "«"
      ],
      [
        "à±ģ",
        "\""
      ],
      [
        "Ġà°",
        "Ł"
      ],
      [
        "ĠĠĠĠ",
        "ĠĠĠĠ"
      ],
      [
        "à°¯",
        "à°ķ"
      ],
      [
        "Ġà°ħ",
        "à°®"
      ],
      [
        "à±į",
        "."
      ],
      [
        "Ġ",
        "*"
      ],
      [
        "à±ĩ",
        "à°Ĥ"
      ],
      [
        "Ġà°ª",
        "à°¡"
      ],
      [
        "Ġà°ħ",
        "à°ª"
      ],
      [
        "à°¨",
        "à°¦"
      ],
      [
        "à°¾",
        "?\""
      ],
      [
        "à°¸",
        "à°°"
      ],
      [
        "à°ª",
        "à°Ł"
      ],
      [
        "Ġ",
        "-"
      ],
      [
        "à°¾",
        "!"
      ],
      [
        "Ġà°¸",
        "à°®"
      ],
      [
        "à°¾",
        "?"
      ],
      [
        "Ġà°¸",
        "à°°"
      ],
      [
        "à°¬",
        "à°¡"
      ],
      [
        "à°ķ",
        "à°°"
      ],
      [
        "Ġà°",
        "ĵ"
      ],
      [
        "à°ķ",
        "à°ª"
      ],
      [
        "à°Ĺ",
        "à°°"
      ],
      [
        "à°¤",
        "à°®"
      ],
      [
        "à°¤",
        "à°¨"
      ],
      [
        "à±",
        "Į"
      ],
      [
        "à°Ĥ",
        "."
      ],
      [
        "à°¾",
        "."
      ],
      [
        "à°¯",
        "à°®"
      ],
      [
        "à°µ",
        "à°¡"
      ],
      [
        "Ġà°ľ",
        "à°°"
      ],
      [
        "à°¯",
        "à°²"
      ],
      [
        "à°Ĺ",
        "à°²"
      ],
      [
        "à°¨",
        "à°µ"
      ],
      [
        "Ġà°¦",
        "à°Ĺ"
      ],
      [
        "à°ķ",
        "à°²"
      ],
      [
        "Ġà°ħ",
        "à°ķ"
      ],
      [
        "à°¯",
        "à°Ł"
      ],
      [
        "Ġà°µ",
        "à°¸"
      ],
      [
        "Ġà°ķ",
        "à°³"
      ],
      [
        "Ġà°İ",
        "à°ķ"
      ],
      [
        "à°¾",
        ","
      ],
      [
        "Ġà°ĩ",
        "à°¦"
      ],
      [
        "Ġà°¤",
        "à°°"
      ],
      [
        "Ġà°ª",
        "à°¨"
      ],
      [
        "Ġà°Ĩ",
        "à°²"
      ],
      [
        "à°",
        "ı"
      ],
      [
        "Ġà°ħà°¤",
        "à°¡"
      ],
      [
        "Ġà°İ",
        "à°µà°°"
      ],
      [
        "Ġà°¨",
        "à°µ"
      ],
      [
        "à°¨",
        "à°¨"
      ],
      [
        "à°·",
        "à°£"
      ],
      [
        "Ġà°ª",
        "à°Ł"
      ],
      [
        "à°°",
        "à°¯"
      ],
      [
        "à±ģ.",
        "\""
      ],
      [
        "à°¨",
        "à°®"
      ],
      [
        "à°¤",
        "à°²"
      ],
      [
        "Ġà°ı",
        "à°®"
      ],
      [
        "à°ķ",
        "à°¨"
      ],
      [
        "à°·",
        "à°¨"
      ],
      [
        "à°¦",
        "à°²"
      ],
      [
        "à°¨",
        "à°ķ"
      ],
      [
        "Ġ",
        "ĊčĊ"
      ],
      [
        "Ġà°¤",
        "à°ª"
      ],
      [
        "Ġà°",
        "§"
      ],
      [
        "à°",
        "ĩ"
      ],
      [
        "à°¿",
        "\""
      ],
      [
        "Ġ",
        "'"
      ],
      [
        "à°¤",
        "à°ķ"
      ],
      [
        "..",
        "..."
      ],
      [
        "à°ª",
        "à°²"
      ],
      [
        "Ġà°ī",
        "à°¨"
      ],
      [
        "Ġà°ª",
        "à°¦"
      ],
      [
        "à°°",
        "à°¸"
      ],
      [
        "à°°",
        "à°£"
      ],
      [
        "à°²",
        "à°²"
      ],
      [
        "à±Ĥ",
        ","
      ],
      [
        "à°·",
        "à°¯"
      ],
      [
        "à°",
        "İ"
      ],
      [
        "à°°",
        "à°µ"
      ],
      [
        "à°",
        "Ĩ"
      ],
      [
        "à°µ",
        "à°¤"
      ],
      [
        "à°ļ",
        "à°¨"
      ],
      [
        "Ġà°İ",
        "à°²"
      ],
      [
        "Ġà°ı",
        "à°¦"
      ],
      [
        "à°®",
        "à°²"
      ],
      [
        "à°ª",
        "à°°"
      ],
      [
        "à°¡",
        "à°²"
      ],
      [
        "Ġà°¬",
        "à°¯à°Ł"
      ],
      [
        "Ġà°",
        "Ĭ"
      ],
      [
        "à±ģ",
        "!"
      ],
      [
        "Ġà°®",
        "à°§"
      ],
      [
        "à°µ",
        "à°¨"
      ],
      [
        "Ġà°®à°¨",
        "à°¸"
      ],
      [
        "à°²",
        "à°®"
      ],
      [
        "Ġà°ī",
        "à°¦"
      ],
      [
        "à°¨",
        "à°ª"
      ],
      [
        "Ġà°ĩ",
        "à°ª"
      ],
      [
        "à±Ģ",
        ","
      ],
      [
        "Ġà°ħ",
        "à°¸"
      ],
      [
        "à°Ł",
        "à°¨"
      ],
      [
        "à°µ",
        "à°ļ"
      ],
      [
        "à°¤",
        "à°°"
      ],
      [
        "à°ļ",
        "à°°"
      ],
      [
        "à°¿",
        "!"
      ],
      [
        "à°ļ",
        "à°²"
      ],
      [
        "à°ķ",
        "à°Ł"
      ],
      [
        "Ġà°ķ",
        "à°¦"
      ],
      [
        "Ġà°Ĩ",
        "à°¶"
      ],
      [
        "Ġà°Ĩ",
        "à°°"
      ],
      [
        "à°Ĥ",
        ","
      ],
      [
        "à°¿",
        "?"
      ],
      [
        "à°µ",
        "à°Ł"
      ],
      [
        "à°",
        "ŀ"
      ],
      [
        "à°ľ",
        "à°¨"
      ],
      [
        "à°¡",
        "à°¨"
      ],
      [
        "à±ģ.",
        ".."
      ],
      [
        "à°¿.",
        "\""
      ],
      [
        "Ġà°¨",
        "à°¨"
      ],
      [
        "à±ĩ",
        "."
      ],
      [
        "...",
        "\""
      ],
      [
        "à°¡",
        "à°µ"
      ],
      [
        "Ġà°İ",
        "à°¦"
      ],
      [
        "à°²",
        "à°µ"
      ],
      [
        "Ġà°Ĩ",
        "à°¯à°¨"
      ],
      [
        "à±į",
        "!"
      ],
      [
        "à±ĭ",
        ","
      ],
      [
        "à°®",
        "à°¯"
      ],
      [
        "à°",
        "ł"
      ],
      [
        "à°°",
        "à°¹"
      ],
      [
        "Ġà°®",
        "à°³"
      ],
      [
        "à°¡",
        "à°¦"
      ],
      [
        "à°°",
        "à°ª"
      ],
      [
        "à±ģ",
        "?"
      ],
      [
        "Ġà°ļ",
        "à°¦"
      ],
      [
        "Ġà°¨",
        "à°¡"
      ],
      [
        "à°",
        "ĺ"
      ],
      [
        "Ġà°Ĺ",
        "à°¦"
      ],
      [
        "Ġà°µ",
        "à°¦"
      ],
      [
        "à°ª",
        "à°¤"
      ],
      [
        "à°°",
        "à°¨"
      ],
      [
        "Ġà°µ",
        "à°°"
      ],
      [
        "à±Ĥ",
        "à°Ĥ"
      ],
      [
        "à°²",
        "à°¤"
      ],
      [
        "à°¿",
        "?\""
      ],
      [
        "_",
        "_"
      ],
      [
        "Ġà°ħ",
        "à°Ń"
      ],
      [
        "Ġà°ĩ",
        "à°²"
      ],
      [
        "à°¯",
        "à°¸"
      ],
      [
        "à°¡",
        "à°Ĺ"
      ],
      [
        "Ġà°°",
        "à°ķ"
      ],
      [
        "à°®",
        "à°ķ"
      ],
      [
        "à°®",
        "à°°"
      ],
      [
        "Ġà°¨",
        "à°®"
      ],
      [
        "à°°",
        "à°¦"
      ],
      [
        "Ġà°",
        "·"
      ],
      [
        "à±ģ",
        "?\""
      ],
      [
        "à°¤",
        "à°Ĺ"
      ],
      [
        "Ġà°Ń",
        "à°¯"
      ],
      [
        "à°²",
        "à°¬à°¡"
      ],
      [
        "Ġà°",
        "ĸ"
      ],
      [
        "à±Ĥ",
        "."
      ],
      [
        "à°Ĺ",
        "à°¤"
      ],
      [
        "Ġà°İ",
        "à°¨"
      ],
      [
        "Ġà°İ",
        "à°ª"
      ],
      [
        "à±ĩ",
        ","
      ],
      [
        "Ġà°Ĩ",
        "à°¨"
      ],
      [
        "Ġà°ĩ",
        "à°ķ"
      ],
      [
        "Ġà°Ĩ",
        "à°Ĺ"
      ],
      [
        "à°¿",
        "...."
      ],
      [
        "à°ª",
        "à°ķ"
      ],
      [
        "à°°à°¯",
        "à°¤"
      ],
      [
        "à°ļ",
        "à°¡"
      ],
      [
        "à°³",
        "à°ķ"
      ],
      [
        "Ġà°ª",
        "à°ķ"
      ],
      [
        "à±Ģ",
        "!"
      ],
      [
        "Ġà°ħ",
        "à°Ł"
      ],
      [
        "à°³",
        "à°¨"
      ],
      [
        "à±Ī",
        "à°Ĥ"
      ],
      [
        "à°µà°°",
        "à°ķ"
      ],
      [
        "à°°",
        "à°¶"
      ],
      [
        "ĠĠĠĠĠĠĠĠ",
        "ĠĠĠĠĠĠĠĠ"
      ],
      [
        "à°¦",
        "à°ķ"
      ],
      [
        "à°Ł",
        "à°ķ"
      ],
      [
        "Ġà°¤à°¨",
        "à°ķ"
      ],
      [
        "à°²",
        "à°¯"
      ],
      [
        "Ġà°¡",
        "à°¬"
      ],
      [
        "à°²",
        "à°Ĺ"
      ],
      [
        "à°¯",
        "à°¡"
      ],
      [
        "à°¦",
        "à°Ł"
      ],
      [
        "à°¾",
        "!\""
      ],
      [
        "à±ĩ",
        "!"
      ],
      [
        "Ġà°Ń",
        "à°°"
      ],
      [
        "à°ľ",
        "à°®"
      ],
      [
        "Ġà°ķ",
        "à°Ł"
      ],
      [
        "Ġà°ī",
        "à°¤"
      ],
      [
        "Ġà°ķ",
        "à°°"
      ],
      [
        "à°°",
        "à°²"
      ],
      [
        "Ġà°ĩ",
        "à°¨"
      ],
      [
        "à°ķ",
        "à°®"
      ],
      [
        "Ġà°ħ",
        "à°Ĺ"
      ],
      [
        "à°ħ",
        "à°¦"
      ],
      [
        "Ġà°Ĺ",
        "à°¡"
      ],
      [
        "à±į",
        ","
      ],
      [
        "à°¦",
        "à°®"
      ],
      [
        "à°³",
        "à°²"
      ],
      [
        "à°ª",
        "à°¨"
      ],
      [
        "Ġ",
        "1"
      ],
      [
        "à°ı",
        "à°®"
      ],
      [
        "Ġà°®",
        "à°¹"
      ],
      [
        "Ġà°Ĩ",
        "à°µ"
      ],
      [
        "à±ģ.",
        "..."
      ],
      [
        "Ġà°¤",
        "à°Ĺ"
      ],
      [
        "Ġà°ı",
        "à°¡"
      ],
      [
        "Ġà°ĩ",
        "à°ļ"
      ],
      [
        "à°¨",
        "à°Ĺ"
      ],
      [
        "à°Ĺ",
        "à°®"
      ],
      [
        "à°¨",
        "à°²"
      ],
      [
        "à°¨",
        "à°¯"
      ],
      [
        "Ġà°Ĩ",
        "à°¡"
      ],
      [
        "à±ģ",
        "-"
      ],
      [
        "à°Ł",
        "à°®"
      ],
      [
        "à°¯",
        "à°µ"
      ],
      [
        "Ġà°¸",
        "à°¹"
      ],
      [
        "à±ĭ",
        "."
      ],
      [
        "Ġà°¸",
        "à°¤"
      ],
      [
        "à°¯",
        "à°¤"
      ],
      [
        "à±į",
        "\""
      ],
      [
        "à°¬",
        "à°°"
      ],
      [
        "à°¸",
        "à°²"
      ],
      [
        "Ġà°ĩ",
        "à°µ"
      ],
      [
        "Ġà°²",
        "à°ķ"
      ],
      [
        "à°¡",
        "à°ķ"
      ],
      [
        "à°¾",
        "\""
      ],
      [
        "à°¿",
        "..."
      ],
      [
        "à°¾à°Ĥ",
        "."
      ],
      [
        "Ġà°ħà°¸",
        "à°²"
      ],
      [
        "Ġà°Ĩ",
        "à°«"
      ],
      [
        "à°°",
        "à°Ĺ"
      ],
      [
        "Ġà°¸à°®",
        "à°¯"
      ],
      [
        "à°¨",
        "à°°"
      ],
      [
        "à°¡",
        "à°Ł"
      ],
      [
        "à°°",
        "à°ľ"
      ],
      [
        "Ġ",
        "!"
      ],
      [
        "à°µ",
        "à°¦"
      ],
      [
        "à°ļ",
        "à°Ł"
      ],
      [
        "čĊ",
        "Ġ"
      ],
      [
        "à°¯",
        "à°°"
      ],
      [
        "....",
        "\""
      ],
      [
        "Ġà°¨",
        "à°²"
      ],
      [
        "Ġà°ľ",
        "à°¨"
      ],
      [
        "à°§",
        "à°®"
      ],
      [
        "à°®",
        "à°®"
      ],
      [
        "Ġà°Ĩ",
        "à°ª"
      ],
      [
        "à°¦",
        "à°µ"
      ],
      [
        "à±Ĥ",
        "!"
      ],
      [
        "à°",
        "Ī"
      ],
      [
        "à°¿",
        "-"
      ],
      [
        "Ġà°¤",
        "à°®"
      ],
      [
        "à°¡",
        "à°°"
      ],
      [
        "à°ļ",
        "à°ķ"
      ],
      [
        "à°¬",
        "à°Ł"
      ],
      [
        "à°¡",
        "à°®"
      ],
      [
        "à°µ",
        "à°¸"
      ],
      [
        "Ġà°Ĩ",
        "à°¦"
      ],
      [
        "à±ģ",
        "!\""
      ],
      [
        "Ġà°¤à°¨",
        "à°¨"
      ],
      [
        "à°ķ",
        "à°¸"
      ],
      [
        "Ġà°",
        "Ĳ"
      ],
      [
        "à°",
        "ĥ"
      ],
      [
        "à°µ",
        "à°®"
      ],
      [
        "à°ħ",
        "à°µ"
      ],
      [
        "à°ķ",
        "à°ķ"
      ],
      [
        "à°²",
        "à°°"
      ],
      [
        "Ġà°Ĭ",
        "à°°"
      ],
      [
        "à°µ",
        "à°ķ"
      ],
      [
        "Ġà°¶",
        "à°ķ"
      ],
      [
        "à°Ĺ",
        "à°°à°ķ"
      ],
      [
        "Ġà°ħ",
        "à°§"
      ],
      [
        "à°°",
        "à°Ń"
      ],
      [
        "à°Ń",
        "à°µ"
      ],
      [
        "à°µà°²",
        "à°¸"
      ],
      [
        "Ġà°",
        "Ľ"
      ],
      [
        "à°®",
        "à°¤"
      ],
      [
        "à±Ģ",
        "."
      ],
      [
        "Ġà°¬à°¯à°Ł",
        "à°ķ"
      ],
      [
        "à°",
        "Ĵ"
      ],
      [
        "à°Ĺ",
        "à°¨"
      ],
      [
        "Ġà°¬",
        "à°²"
      ],
      [
        "à°¾",
        "..."
      ],
      [
        "Ġà°¶",
        "à°°"
      ],
      [
        "à°ª",
        "à°¦"
      ],
      [
        "à±ĭ",
        "!"
      ],
      [
        "Ġà°İ",
        "à°¤"
      ],
      [
        "à°®",
        "à°Ĺ"
      ],
      [
        "à°¦",
        "à°Ĺ"
      ],
      [
        "Ġà°ħ",
        "à°¬"
      ],
      [
        "à±į",
        "..."
      ],
      [
        "Ġà°ķ",
        "à°·"
      ],
      [
        "à°¿",
        "!\""
      ],
      [
        "Ġà°µ",
        "à°²"
      ],
      [
        "à°¯",
        "à°¦"
      ],
      [
        "à°®",
        "à°¦"
      ],
      [
        "Ġà°¶",
        "à°¤"
      ],
      [
        "à°Ĺ",
        "à°µ"
      ],
      [
        "Ġà°Ĵà°ķ",
        "à°Ł"
      ],
      [
        "Ġà°ı",
        "à°°"
      ],
      [
        "à°ľ",
        "à°°"
      ],
      [
        "à°Ĥ",
        "!"
      ],
      [
        "à°®",
        "à°£"
      ],
      [
        "à±į",
        "!\""
      ],
      [
        "à°¹",
        "à°¸"
      ],
      [
        "Ġà°ļ",
        "à°²"
      ],
      [
        "Ġà°ĩ",
        "à°·"
      ],
      [
        "Ġà°Ĵà°ķ",
        "à°°"
      ],
      [
        "à°¯",
        "à°Ĺ"
      ],
      [
        "à°¨",
        "à°¸"
      ],
      [
        "à°·",
        "à°²"
      ],
      [
        "à°µ",
        "à°¯"
      ],
      [
        "Ġà°Ĩ",
        "à°¤"
      ],
      [
        "à°ľ",
        "à°¯"
      ],
      [
        "à°§",
        "à°°"
      ],
      [
        "à°¡",
        "à°¡"
      ],
      [
        "Ġà°Ĩ",
        "à°¸"
      ],
      [
        "Ġà°¬",
        "à°¯à°²"
      ],
      [
        "à°ļ",
        "à°¯"
      ],
      [
        "à°ħ",
        "à°¯"
      ],
      [
        "à°¡",
        "à°¤"
      ],
      [
        "Ġà°ĩ",
        "à°Ł"
      ],
      [
        "à°²",
        "à°ª"
      ],
      [
        "à°·",
        "à°®"
      ],
      [
        "à°¹",
        "à°°"
      ],
      [
        "à°ª",
        "à°®"
      ],
      [
        "à°¾",
        "...."
      ],
      [
        "à°¦",
        "à°¯"
      ],
      [
        "à°³",
        "à°¤"
      ],
      [
        "à°£",
        "à°®"
      ],
      [
        "Ċ",
        "ĊčĊ"
      ],
      [
        "à±Ĩ",
        "."
      ],
      [
        "Ġà°ª",
        "à°²"
      ],
      [
        "Ġà°ī",
        "à°ª"
      ],
      [
        "à°ĸ",
        "à°°"
      ],
      [
        "à°Ĺ",
        "à°¦"
      ],
      [
        "à±į",
        "...."
      ],
      [
        "à°ħ",
        "à°¨"
      ],
      [
        "Ġà°Ĩ",
        "à°ķ"
      ],
      [
        "à°¹",
        "à°²"
      ],
      [
        "à±ģ.",
        "...."
      ],
      [
        "à°¸",
        "à°¨"
      ],
      [
        "Ġà°Ĺ",
        "à°Ł"
      ],
      [
        "Ġà°Ĺ",
        "à°®à°¨"
      ],
      [
        "à°ļà°¨",
        "à°²"
      ],
      [
        "Ġ",
        "("
      ],
      [
        "Ġà°µ",
        "à°°à°ķ"
      ],
      [
        "Ġà°ľ",
        "à°¯"
      ],
      [
        "à°¤",
        "à°ª"
      ],
      [
        "à°ħ",
        "à°²"
      ],
      [
        "Ġà°ļ",
        "à°ķ"
      ],
      [
        "à°¹",
        "à°¨"
      ],
      [
        "à°¤",
        "à°¯"
      ],
      [
        "à°Ł",
        "à°ª"
      ],
      [
        "Ġà°ľ",
        "à°µ"
      ],
      [
        "Ġà°¯",
        "à°ľ"
      ],
      [
        "à°§",
        "à°¨"
      ],
      [
        "à°¤",
        "à°µà°°à°ķ"
      ],
      [
        "à°µ",
        "à°Ĺ"
      ],
      [
        "Ġà°ķ",
        "à°®"
      ],
      [
        "à°¸",
        "à°®"
      ],
      [
        "Ġà°ħ",
        "à°¶"
      ],
      [
        "Ġà°ļ",
        "à°°"
      ],
      [
        "ĠĠ",
        "Ġ"
      ],
      [
        "Ġà°ļ",
        "à°ª"
      ],
      [
        "Ġà°İ",
        "à°°"
      ],
      [
        "Ġà°ħà°µ",
        "à°ķ"
      ],
      [
        "Ġà°ħà°µ",
        "à°¸à°°"
      ],
      [
        "à°£",
        "à°¯"
      ],
      [
        "Ġà°¹",
        "à°°"
      ],
      [
        "à°°",
        "à°§"
      ],
      [
        "Ġà°Ĩ",
        "à°Ł"
      ],
      [
        "à°¿",
        "....."
      ],
      [
        "Ġ",
        "2"
      ],
      [
        "à°ķ",
        "à°¦"
      ],
      [
        "à°¤",
        "à°¸"
      ],
      [
        "à°§",
        "à°ªà°¡"
      ],
      [
        "Ġà°ķà°¨",
        "à°¬à°¡"
      ],
      [
        "à°¤",
        "à°µ"
      ],
      [
        "à±ĩ",
        "...."
      ],
      [
        "Ġà°¬",
        "à°Ł"
      ],
      [
        "Ġà°¸à°®",
        "à°¸"
      ],
      [
        "Ġà°īà°¦",
        "à°¯"
      ],
      [
        "à±ĩ",
        "\""
      ],
      [
        "à°",
        "ī"
      ],
      [
        "Ġà°",
        "ĭ"
      ],
      [
        "à°",
        "ĵ"
      ],
      [
        "čĊĠ",
        "č"
      ],
      [
        "à°¯",
        "à°£"
      ],
      [
        "Ġà°¸",
        "à°¨"
      ],
      [
        "à°ĩ",
        "à°¦"
      ],
      [
        "Ġà°¤",
        "à°¡"
      ],
      [
        "Ġà°ĸ",
        "à°°"
      ],
      [
        "Ġà°µ",
        "à°¯à°¸"
      ],
      [
        "à°ħ",
        "à°®"
      ],
      [
        "Ġà°ķ",
        "à°¥"
      ],
      [
        "à°¶",
        "à°¨"
      ],
      [
        "Ġ",
        ","
      ],
      [
        "à°¯",
        "à°ª"
      ],
      [
        "à°Ĺ",
        "à°Ł"
      ],
      [
        "à°Ĺ",
        "à°¡"
      ],
      [
        "Ġà°ª",
        "à°¤"
      ],
      [
        "Ġà°®à°¨",
        "à°ķ"
      ],
      [
        "à°°",
        "à°µà°°"
      ],
      [
        "à°Ł",
        "à°¡"
      ],
      [
        "à°Ĺ",
        "à°¬"
      ],
      [
        "Ġà°Ĺ",
        "à°°"
      ],
      [
        "à±ĩ",
        "..."
      ],
      [
        "Ġ",
        "...."
      ],
      [
        "Ġà°ķ",
        "à°¡"
      ],
      [
        "Ġà°ĩ",
        "à°¸"
      ],
      [
        "à±į",
        "?\""
      ],
      [
        "à±Į",
        "à°Ĥ"
      ],
      [
        "à°Ł",
        "à°²à°ķ"
      ],
      [
        "à°",
        "Ľ"
      ],
      [
        "à°¡",
        "à°¤à°¨"
      ],
      [
        "Ġà°Ĭ",
        "à°¹"
      ],
      [
        "à°ķ",
        "à°¤"
      ],
      [
        "Ġà°ķ",
        "à°¸"
      ],
      [
        "Ġà°ī",
        "à°²"
      ],
      [
        "à°¤",
        "à°¤"
      ],
      [
        "Ġà°Ĩ",
        "à°¹"
      ],
      [
        "à°ķ",
        "à°Ĺ"
      ],
      [
        "à°ľ",
        "à°ķ"
      ],
      [
        "à°Ł",
        "à°¯"
      ],
      [
        "Ġ",
        "__"
      ],
      [
        "à±Ĥ",
        "?\""
      ],
      [
        "Ġà°ļ",
        "à°ļ"
      ],
      [
        "Ġà°°",
        "à°µ"
      ],
      [
        "Ġà°¤",
        "à°¯"
      ],
      [
        "Ġà°¬",
        "à°¸"
      ],
      [
        "ĠĠĠĠĠĠĠĠ",
        "ĠĠĠĠ"
      ],
      [
        "Ġà°İ",
        "à°Ĺ"
      ],
      [
        "Ġà°¨",
        "à°°"
      ],
      [
        "Ġà°§",
        "à°°"
      ],
      [
        "à°Ł",
        "à°ªà°¡"
      ],
      [
        "à°§",
        "à°µ"
      ],
      [
        "à°ĩ",
        "à°ª"
      ],
      [
        "Ġà°Ĩà°¡",
        "à°ª"
      ],
      [
        "à°Ĵ",
        "à°ķ"
      ],
      [
        "Ġà°Ĺ",
        "à°¬"
      ],
      [
        "à°ļ",
        "à°Ĺà°²"
      ],
      [
        "à°¬",
        "à°²"
      ],
      [
        "Ġà°İ",
        "à°Ł"
      ],
      [
        "Ġà°¬",
        "à°¹"
      ],
      [
        "Ġà°",
        "ĺ"
      ],
      [
        "Ġà°ļ",
        "à°¨"
      ],
      [
        "à°³",
        "à°®"
      ],
      [
        "à°¤",
        "à°Ł"
      ],
      [
        "Ġà°ķ",
        "à°ª"
      ],
      [
        "Ġà°¨",
        "à°ļ"
      ],
      [
        "à°°",
        "à°Ł"
      ],
      [
        "à±ģ",
        "'"
      ],
      [
        "à°¡",
        "à°¯"
      ],
      [
        "à°Ĥ",
        "\""
      ],
      [
        "à°¶",
        "à°¬"
      ],
      [
        "à±ĩ",
        "!\""
      ],
      [
        "à°¥",
        "à°®"
      ],
      [
        "à°¾à°Ĥ",
        "\""
      ],
      [
        "à±ĭ",
        "..."
      ],
      [
        "Ġà°¶",
        "à°¬"
      ],
      [
        "à±ģ...",
        "\""
      ],
      [
        "à°ª",
        "à°Ĺ"
      ],
      [
        "à°¶",
        "à°ķ"
      ],
      [
        "Ġà°",
        "¥"
      ],
      [
        "à±į",
        "'"
      ],
      [
        "à°ª",
        "à°·"
      ],
      [
        "Ġà°¦",
        "à°°"
      ],
      [
        "Ġ",
        ":"
      ],
      [
        "Ġà°Ĩ",
        "à°¯"
      ],
      [
        "à°ķ",
        "à°¯"
      ],
      [
        "à°¯",
        "à°Ĺà°²"
      ],
      [
        "à°Ĥ",
        "?"
      ],
      [
        "à°Ĥ",
        "..."
      ],
      [
        "Ġà°®",
        "à°®"
      ],
      [
        "à°¹",
        "à°®"
      ],
      [
        "Ġà°Ńà°¯",
        "à°ªà°¡"
      ],
      [
        "à°¡",
        "à°ª"
      ],
      [
        "Ġà°®",
        "à°¤"
      ],
      [
        "Ġà°Ĵ",
        "à°ª"
      ],
      [
        "à°",
        "Ĳ"
      ],
      [
        "Ġà°°",
        "à°®"
      ],
      [
        "Ġ",
        "3"
      ],
      [
        "à°İ",
        "à°µà°°"
      ],
      [
        "Ġà°¤",
        "à°ķ"
      ],
      [
        "Ġà°¤",
        "à°Ł"
      ],
      [
        ".....",
        "\""
      ],
      [
        "Ġ",
        "."
      ],
      [
        "Ġà°¹",
        "à°¤"
      ],
      [
        "Ġà°ħà°²",
        "à°µ"
      ],
      [
        "à°¨",
        "à°¡"
      ],
      [
        "à°²",
        "à°¦"
      ],
      [
        "à°Ł",
        "à°µ"
      ],
      [
        "à±Ģ",
        "..."
      ],
      [
        "à±ĩ",
        "-"
      ],
      [
        "à°ª",
        "à°²à°ķ"
      ],
      [
        "Ġà°ķ",
        "à°¬"
      ],
      [
        "à°§",
        "à°¤"
      ],
      [
        "à°Ĥ",
        "...."
      ],
      [
        "à±Ģ",
        "!\""
      ],
      [
        "Ġà°Ĺ",
        "à°¤"
      ],
      [
        "à°¶",
        "à°®"
      ],
      [
        "Ġà°¯",
        "à°ľà°®"
      ],
      [
        "Ġà°Ĭ",
        "à°ª"
      ],
      [
        "à±ĭ",
        "\""
      ],
      [
        "à°µ",
        "à°ª"
      ],
      [
        "à°¨",
        "à°¤"
      ],
      [
        "Ġà°ª",
        "à°¸"
      ],
      [
        "Ġà°®",
        "à°Ĺ"
      ],
      [
        "à°¿",
        "...\""
      ],
      [
        "à°",
        "ģ"
      ],
      [
        "à°Ĥ",
        "?\""
      ],
      [
        "à°°",
        "à°ļ"
      ],
      [
        "à°µ",
        "à°¤à°²"
      ],
      [
        "à°²",
        "à°¸"
      ],
      [
        "à°¯",
        "à°®à°¨"
      ],
      [
        "à°ļ",
        "à°Ĺ"
      ],
      [
        "à°²",
        "à°¬"
      ],
      [
        "à°",
        "¢"
      ],
      [
        "à°°",
        "à°¦à°°"
      ],
      [
        "à°Ł",
        "à°Ł"
      ],
      [
        "Ġà°¬",
        "à°¤"
      ],
      [
        "ĠčĊ",
        "ĠčĊ"
      ],
      [
        "Ġà°°",
        "à°¹à°¸"
      ],
      [
        "à°ŀ",
        "à°®"
      ],
      [
        "à°",
        "Ĭ"
      ],
      [
        "Ġ",
        "|"
      ],
      [
        "Ġà°®",
        "à°²"
      ],
      [
        "Ġà°ļ",
        "à°Ł"
      ],
      [
        "Ġ",
        "..."
      ],
      [
        "Ġà°ª",
        "à°°à°®"
      ],
      [
        "à±ģ.",
        "...\""
      ],
      [
        "à°·",
        "à°°"
      ],
      [
        "Ġà°ı",
        "à°ķ"
      ],
      [
        "Ġà°¶",
        "à°¶"
      ],
      [
        "à°¿",
        "'"
      ],
      [
        "à°¾",
        "-"
      ],
      [
        "Ġà°ħ",
        "à°ļ"
      ],
      [
        "Ġà°ħ",
        "à°£"
      ],
      [
        "à°¦",
        "à°¸"
      ],
      [
        "Ġà°ĩ",
        "à°°à°µ"
      ],
      [
        "Ġà°Ĵà°ķ",
        "à°¸"
      ],
      [
        "à°³",
        "à°¯"
      ],
      [
        "Ġà°ª",
        "à°ļ"
      ],
      [
        "à°·",
        "à°¸"
      ],
      [
        "Ġà°«",
        "à°°"
      ],
      [
        "à±ģ",
        "à°ĥ"
      ],
      [
        "à°µ",
        "à°£"
      ],
      [
        "Ġà°¨",
        "à°µà°²"
      ],
      [
        "à±ĭ",
        "...."
      ],
      [
        "à±Ģ",
        "\""
      ],
      [
        "Ġà°ī",
        "à°°"
      ],
      [
        "à°¾.",
        "\""
      ],
      [
        "Ġà°ķ",
        "à°µ"
      ],
      [
        "Ġà°ķ",
        "à°¦à°²"
      ],
      [
        "Ġà°Ĺà°¬",
        "à°Ĺà°¬"
      ],
      [
        "Ġà°Ĩ",
        "à°§"
      ],
      [
        "à°·",
        "à°ķ"
      ],
      [
        "à°§",
        "à°ķ"
      ],
      [
        "à°ķ",
        "à°µ"
      ],
      [
        "à±Ģ",
        "...."
      ],
      [
        "à°µà°°",
        "à°Ĺ"
      ],
      [
        "à°Ĥ",
        "-"
      ],
      [
        "à°¦",
        "à°¡"
      ],
      [
        "à±ĩ",
        "?\""
      ],
      [
        "Ġà°Ĩ",
        "à°¡à°¦"
      ],
      [
        "Ġà°İ",
        "à°¡"
      ],
      [
        "Ġà°«",
        "à°²"
      ],
      [
        "Ġ",
        "5"
      ],
      [
        "Ġà°¸",
        "à°²"
      ],
      [
        "Ġà°°",
        "à°®à°£"
      ],
      [
        "à°¹",
        "à°¤"
      ],
      [
        "Ġà°Ĩà°²",
        "à°¸"
      ],
      [
        "Ġà°§",
        "à°¨à°®"
      ],
      [
        "à°ħ",
        "à°¤à°¨"
      ],
      [
        "à°¦",
        "à°ªà°¡"
      ],
      [
        "Ġà°ĩ",
        "à°°"
      ],
      [
        "Ġà°®",
        "à°¦"
      ],
      [
        "à±Ĥ",
        "?"
      ],
      [
        "Ġà°¸à°®",
        "à°°"
      ],
      [
        "Ġà°§",
        "à°¨"
      ],
      [
        "à±Ĥ",
        "!\""
      ],
      [
        "à°Ł",
        "à°¬"
      ],
      [
        "à°İ",
        "à°ķ"
      ],
      [
        "à°²",
        "à°ļ"
      ],
      [
        "à±Ģ",
        "?\""
      ],
      [
        "à±ĥ",
        "à°Ĥ"
      ],
      [
        "à±ĩ",
        "?"
      ],
      [
        "Ġà°ħ",
        "à°¹"
      ],
      [
        "Ġà°²",
        "à°Ń"
      ],
      [
        "à°µà°°",
        "à°£"
      ],
      [
        "à±į",
        "-"
      ],
      [
        "à±ĭ",
        "?"
      ],
      [
        "Ġà°µ",
        "à°¡"
      ],
      [
        "Ġà°¬",
        "à°²à°µ"
      ],
      [
        "Ġà°ľ",
        "à°²"
      ],
      [
        "Ġ",
        "4"
      ],
      [
        "Ġà°¸",
        "à°µ"
      ],
      [
        "Ġà°ħà°¨",
        "à°¡"
      ],
      [
        "Ġà°ı",
        "à°µ"
      ],
      [
        "Ġà°īà°ª",
        "à°¯"
      ],
      [
        "Ġà°Ĩ",
        "à°ªà°°"
      ],
      [
        "à°ħ",
        "à°¬"
      ],
      [
        "à°ķà°¡",
        "à°ķ"
      ],
      [
        "à°ĺ",
        "à°Łà°¨"
      ],
      [
        "Ġà°¨à°®",
        "à°¸"
      ],
      [
        "à°¿....",
        "\""
      ],
      [
        "à°Ĺà°°",
        "à°Ĺ"
      ],
      [
        "à°·à°¨",
        "à°°"
      ],
      [
        "à°®",
        "à°¬"
      ],
      [
        "Ġà°¦",
        "à°¯"
      ],
      [
        "à°°à°ľ",
        "à°²"
      ],
      [
        ".",
        "\""
      ],
      [
        "à±į",
        "?"
      ],
      [
        "à°¯",
        "à°¬"
      ],
      [
        "Ġà°¬",
        "à°°"
      ],
      [
        "Ġà°¯",
        "à°¶"
      ],
      [
        "Ġà°ħà°µ",
        "à°¸"
      ],
      [
        "à°¸",
        "à°Ĺ"
      ],
      [
        "Ġà°¨",
        "à°Ł"
      ],
      [
        "à±Ģ",
        "à°Ĥ"
      ],
      [
        "Ġà°²",
        "à°¤"
      ],
      [
        "Ġà°®à°°",
        "à°£"
      ],
      [
        "Ġà°ª",
        "à°Ĺ"
      ],
      [
        "Ġà°İ",
        "à°¸"
      ],
      [
        "Ġà°¬à°¯à°Ł",
        "à°ªà°¡"
      ],
      [
        "à±Ģ",
        "?"
      ],
      [
        "Ġà°µ",
        "à°£"
      ],
      [
        "à°·",
        "à°¯à°®"
      ],
      [
        "Ġà°İ",
        "à°®"
      ],
      [
        "čĊĠčĊ",
        "ĠĠĠĠĠĠĠĠĠĠĠĠĠĠĠĠ"
      ],
      [
        "à±ĭ",
        "!\""
      ],
      [
        "à°°",
        "à°°"
      ],
      [
        "à±ĭ",
        "-"
      ],
      [
        "Ġà°ª",
        "à°³"
      ],
      [
        "Ġà°®",
        "à°¸"
      ],
      [
        "čĊ",
        "ĠĠ"
      ],
      [
        "à°¥",
        "à°²"
      ],
      [
        "à°°",
        "à°¬"
      ],
      [
        "à°®",
        "à°µ"
      ],
      [
        "Ġà°ħà°°",
        "à°Ĺ"
      ],
      [
        "à°İ",
        "à°²"
      ],
      [
        "à°¾",
        "....."
      ],
      [
        "à°®",
        "à°§"
      ],
      [
        "à°ļ",
        "à°¦"
      ],
      [
        "Ġà°¹",
        "à°µ"
      ],
      [
        "à°¾",
        "...\""
      ],
      [
        "à±Ĥ",
        "..."
      ],
      [
        "Ġà°¬",
        "à°¦"
      ],
      [
        "Ġà°¹",
        "à°ł"
      ],
      [
        "Ġà°Ĩà°¯à°¨",
        "à°ķ"
      ],
      [
        "à°ķ",
        "à°³"
      ],
      [
        "Ġà°ª",
        "à°¶"
      ],
      [
        "Ġà°¤à°¨",
        "à°²"
      ],
      [
        "Ġà°Ń",
        "à°µ"
      ],
      [
        "à±Ĥ",
        "\""
      ],
      [
        "Ġà°Ĺ",
        "à°²"
      ],
      [
        "à°Ń",
        "à°°"
      ],
      [
        "Ġà°ħà°µ",
        "à°¤à°²"
      ],
      [
        "Ġà°¬",
        "à°²à°®"
      ],
      [
        "Ġà°Ĵ",
        "à°³"
      ],
      [
        "à±į.",
        "\""
      ],
      [
        "Ġà°ĭ",
        "à°·"
      ],
      [
        "à°³",
        "à°¡"
      ],
      [
        "Ġà°Ĩ",
        "à°¡à°µ"
      ],
      [
        "à°§",
        "à°Ĺ"
      ],
      [
        "Ġà°ħà°¬",
        "à°¦"
      ],
      [
        "à°²",
        "à°Ł"
      ],
      [
        "à°³",
        "à°¦"
      ],
      [
        "Ġà°¸",
        "à°Ĺ"
      ],
      [
        "à°§",
        "à°²"
      ],
      [
        "à°Ń",
        "à°®"
      ],
      [
        "à°ħ",
        "à°°"
      ],
      [
        "Ġ",
        "_"
      ],
      [
        "Ġ",
        "č"
      ],
      [
        "à°²",
        "à°¡"
      ],
      [
        "à°¤",
        "à°¡"
      ],
      [
        "à°ľ",
        "à°²"
      ],
      [
        "à°ĸ",
        "à°®"
      ],
      [
        "à°°à°£",
        "à°®"
      ],
      [
        "à°Ĩ",
        "à°®"
      ],
      [
        "Ġ1",
        "9"
      ],
      [
        "à°¯",
        "à°ªà°¡"
      ],
      [
        "Ġà°¦",
        "à°ķ"
      ],
      [
        "Ġà°¶",
        "à°°à°¤"
      ],
      [
        "à°ħ",
        "à°ª"
      ],
      [
        "à°²à°ķ",
        "à°°"
      ],
      [
        "à°¸",
        "à°¹"
      ],
      [
        "Ġà°¶",
        "à°µ"
      ],
      [
        "à°¦à°°",
        "à°Ĺ"
      ],
      [
        "Ġà°Ĭ",
        "à°³"
      ],
      [
        "Ġà°ħà°¸",
        "à°¹"
      ],
      [
        "à°Ĺ",
        "à°¯"
      ],
      [
        "à°Ł",
        "à°Ĺ"
      ],
      [
        "à°ª",
        "à°¯"
      ],
      [
        "à°ª",
        "à°ļ"
      ],
      [
        "à±Ĥ",
        "...."
      ],
      [
        "Ġà°Ĩ",
        "à°ĸà°°"
      ],
      [
        "Ġà°°",
        "à°ĺ"
      ],
      [
        "Ġà°Ĺ",
        "à°£"
      ],
      [
        "Ġà°İ",
        "à°¯"
      ],
      [
        "Ġà°ķà°²",
        "à°²"
      ],
      [
        "Ġ",
        "....."
      ],
      [
        "à°",
        "±"
      ],
      [
        "Ġ",
        "6"
      ],
      [
        "à±į",
        "...\""
      ],
      [
        "à°¡",
        "à°¦à°¨"
      ],
      [
        "à°µ",
        "à°²à°¨"
      ],
      [
        "à°Ĺ",
        "à°ľ"
      ],
      [
        "Ġà°¨",
        "à°ķ"
      ],
      [
        "à±ģ.",
        "....."
      ],
      [
        "à°·à°£",
        "à°®"
      ],
      [
        "Ġà°Ī",
        "à°¸"
      ],
      [
        "à°ĩ",
        "à°ķ"
      ],
      [
        "à°¡",
        "à°¬"
      ],
      [
        "à°ļ",
        "à°¬à°¡"
      ],
      [
        "Ġà°ħà°¡",
        "à°µ"
      ],
      [
        "à°ª",
        "à°µ"
      ],
      [
        "à°µ",
        "à°¸à°°"
      ],
      [
        "à°ļ",
        "à°µà°²"
      ],
      [
        "Ġà°ķ",
        "à°¤"
      ],
      [
        "Ġà°ķ",
        "à°®à°²"
      ],
      [
        "Ġà°®",
        "à°Ĺà°µ"
      ],
      [
        "à°ľ",
        "à°¸"
      ],
      [
        "à°ļ",
        "à°¸"
      ],
      [
        "Ġà°µ",
        "à°¨"
      ],
      [
        "Ġà°µ",
        "à°²à°¨"
      ],
      [
        "Ġà°µ",
        "à°¦à°²"
      ],
      [
        "à°Ń",
        "à°¯"
      ],
      [
        "à°¤",
        "à°¦"
      ],
      [
        "à°¡",
        "à°¸"
      ],
      [
        "à°·",
        "à°¤"
      ],
      [
        "Ġà°ħà°µà°¸",
        "à°°à°®"
      ],
      [
        "-",
        "-"
      ],
      [
        "à°¾",
        "'"
      ],
      [
        "Ġà°¨",
        "à°·"
      ],
      [
        "à°°à°£",
        "à°¯"
      ],
      [
        "Ġ",
        "7"
      ],
      [
        "Ġà°ĩ",
        "à°¤à°¨"
      ],
      [
        "Ġà°ĵ",
        "à°ª"
      ],
      [
        "Ġ",
        "?"
      ],
      [
        "à°Ĥ",
        "!\""
      ],
      [
        "Ġà°Ī",
        "à°°"
      ],
      [
        "à±ģ\"",
        "."
      ],
      [
        "à°®",
        "à°Ł"
      ],
      [
        "à°Ĺ",
        "à°ķ"
      ],
      [
        "à°Ĺ",
        "à°³"
      ],
      [
        "Ġà°ª",
        "à°µ"
      ],
      [
        "Ġà°ı",
        "à°®à°¨"
      ],
      [
        "Ġà°ħà°°",
        "à°µ"
      ],
      [
        "Ġà°¸à°°",
        "à°¸"
      ],
      [
        "Ġ",
        "?\""
      ],
      [
        "Ġà°¦",
        "à°¶"
      ],
      [
        "Ġà°Ń",
        "à°°à°¤"
      ],
      [
        "à°ħ",
        "à°ķ"
      ],
      [
        "Ġà°ħà°µ",
        "à°®"
      ],
      [
        "à°¬",
        "à°¤"
      ],
      [
        "Ġà°ľ",
        "à°²à°®"
      ],
      [
        "Ġà°¹",
        "à°¨"
      ],
      [
        "Ġà°Ĳ",
        "à°¦"
      ],
      [
        "à°Ł",
        "à°¦"
      ],
      [
        "Ġà°ħ",
        "à°ľ"
      ],
      [
        "Ġà°Ĩ",
        "à°ķà°²"
      ],
      [
        "Ġà°°",
        "à°ļà°¯"
      ],
      [
        "Ġà°ķà°¨",
        "à°ªà°¡"
      ],
      [
        "Ġ",
        "9"
      ],
      [
        "à±į",
        "....."
      ],
      [
        "à°¦",
        "à°¦"
      ],
      [
        "à°Ł",
        "à°¸"
      ],
      [
        "à°¯",
        "à°¶"
      ],
      [
        "Ġà°¨",
        "à°¦"
      ],
      [
        "Ġà°ħà°¨",
        "à°µà°¸à°°"
      ],
      [
        "Ġà°Ń",
        "à°Ĺà°µ"
      ],
      [
        "Ġà°Ĵà°ķ",
        "à°µ"
      ],
      [
        "à°ļ",
        "à°®"
      ],
      [
        "à±Ĥ",
        "-"
      ],
      [
        "Ġà°¸à°²",
        "à°¹"
      ],
      [
        "à°¨",
        "à°¬à°¡"
      ],
      [
        "à°ª",
        "à°¬"
      ],
      [
        "Ġà°°à°ķ",
        "à°°à°ķ"
      ],
      [
        "à±ģ",
        ")"
      ],
      [
        "à°¯",
        "à°ľ"
      ],
      [
        "Ġà°¸",
        "à°Ń"
      ],
      [
        "Ġà°ĩ",
        "à°¬"
      ],
      [
        "à°ħ",
        "à°¸à°²"
      ],
      [
        "Ġà°ħà°¯",
        "à°¨"
      ],
      [
        "Ġà°ħà°ª",
        "à°°"
      ],
      [
        "Ġà°®",
        "à°Ł"
      ],
      [
        "..",
        "\""
      ],
      [
        "Ġà°²",
        "à°²"
      ],
      [
        "à°«",
        "à°°"
      ],
      [
        "Ġà°",
        "¢"
      ],
      [
        "Ġà°",
        "ł"
      ],
      [
        "à°¦",
        "à°¤"
      ],
      [
        "à°¦",
        "à°¬"
      ],
      [
        "Ġà°Ń",
        "à°ķ"
      ],
      [
        "à°Ĥ.",
        "\""
      ],
      [
        "à°²",
        "à°ľ"
      ],
      [
        "à°¦à°°",
        "à°®"
      ],
      [
        "Ġ:",
        "-"
      ],
      [
        "à°¯",
        "à°¬à°¡"
      ],
      [
        "Ġà°¤",
        "à°²à°¨"
      ],
      [
        "Ġà°Ĵ",
        "à°¡"
      ],
      [
        "Ġà°®à°°",
        "à°²"
      ],
      [
        "à±ĩ.",
        "\""
      ],
      [
        "Ġ",
        "8"
      ],
      [
        "à°¡",
        "à°µà°ļ"
      ],
      [
        "à°·",
        "à°Ĺ"
      ],
      [
        "Ġà°Ĺ",
        "à°¨"
      ],
      [
        "Ġà°ħà°®",
        "à°°"
      ],
      [
        "à°ªà°°",
        "à°ļ"
      ],
      [
        "à°²",
        "à°²à°ķ"
      ],
      [
        "Ġà°°",
        "à°¥à°®"
      ],
      [
        "Ġà°ıà°®",
        "à°¯"
      ],
      [
        "à°¯à°µ",
        "à°¹"
      ],
      [
        "Ġ|",
        "|"
      ],
      [
        "à±",
        "¦"
      ],
      [
        "à°ķ",
        "à°°à°®"
      ],
      [
        "à°¤",
        "à°²à°ķ"
      ],
      [
        "à±ĩ",
        "....."
      ],
      [
        "à°ª",
        "à°Ĺà°²"
      ],
      [
        "Ġà°ķ",
        "à°µà°°"
      ],
      [
        "Ġà°¸",
        "à°¦"
      ],
      [
        "Ġà°Ī",
        "à°ľ"
      ],
      [
        "à°ĺ",
        "à°µ"
      ],
      [
        "à°²",
        "à°Ń"
      ],
      [
        "à°®",
        "à°ļ"
      ],
      [
        "Ġà°ħ",
        "à°¹à°²"
      ],
      [
        "Ġà°ķ",
        "à°ķ"
      ],
      [
        "à°İ",
        "à°¸"
      ],
      [
        "à°°",
        "à°ªà°¡"
      ],
      [
        "à°¦",
        "à°ª"
      ],
      [
        "à±Ģ",
        "....."
      ],
      [
        "čĊ",
        "čĊ"
      ],
      [
        "Ġà°¨",
        "à°Ĺ"
      ],
      [
        "Ġà°¹",
        "à°¡"
      ],
      [
        "Ġà°ħà°¡",
        "à°Ĺ"
      ],
      [
        "Ġà°ľà°°",
        "à°Ĺ"
      ],
      [
        "à°¯",
        "à°µà°²"
      ],
      [
        "à°ļ",
        "à°°à°£"
      ],
      [
        "Ġà°ª",
        "à°²à°ķà°°"
      ],
      [
        "à°³",
        "à°µ"
      ],
      [
        "Ġà°¸",
        "à°¬"
      ],
      [
        "Ġà°ī",
        "à°ķ"
      ],
      [
        "Ġà°®à°°",
        "à°ļ"
      ],
      [
        "Ġà°¤à°²",
        "à°µ"
      ],
      [
        "Ġà°ķà°²",
        "à°¸"
      ],
      [
        "à°ı",
        "à°¦"
      ],
      [
        "à°Ĩ",
        "à°°"
      ],
      [
        "__",
        "__"
      ],
      [
        "Ġà°·",
        "à°°"
      ],
      [
        "à°°",
        "à°¬à°¡"
      ],
      [
        "à°£",
        "à°µ"
      ],
      [
        "à°°",
        "à°¥"
      ],
      [
        "à°®",
        "à°ª"
      ],
      [
        "à°®",
        "à°³"
      ],
      [
        "à°¸",
        "à°¤"
      ],
      [
        "Ġà°¤à°¨",
        "à°¤"
      ],
      [
        "Ġà°®à°¨",
        "à°®"
      ],
      [
        "Ġà°¤à°²",
        "à°ª"
      ],
      [
        "à±ĩà°Ĥ",
        "?"
      ],
      [
        "Ġà°¸à°°",
        "à°¦"
      ],
      [
        "à°°",
        "à°¡"
      ],
      [
        "à°ª",
        "à°£"
      ],
      [
        "à°¸",
        "à°ķ"
      ],
      [
        "Ġà°Ĩ",
        "à°ľ"
      ],
      [
        "Ġà°Ń",
        "à°¦"
      ],
      [
        "à°°à°ķ",
        "à°Ł"
      ],
      [
        "à°¯à°®",
        "à°¯"
      ],
      [
        "à°µà°¡",
        "à°®"
      ],
      [
        "à°ª",
        "à°¬à°¡"
      ],
      [
        "Ġà°«",
        "à°¸"
      ],
      [
        "à±ģ",
        "__"
      ],
      [
        "à°¨",
        "à°ļ"
      ],
      [
        "Ġà°¨",
        "à°Ĺà°°"
      ],
      [
        "Ġà°¤",
        "à°²à°ķ"
      ],
      [
        "Ġà°Ĩ",
        "à°ķà°°"
      ],
      [
        "à°µà°°",
        "à°²"
      ],
      [
        "à°ķà°°",
        "à°²"
      ],
      [
        "ĠĠĠĠĠĠĠĠĠĠĠĠĠĠĠĠ",
        "ĠĠĠĠĠĠĠĠĠĠĠĠĠĠĠĠ"
      ],
      [
        "à°¯à°µ",
        "à°¸"
      ],
      [
        "Ġà°¬à°²",
        "à°¹"
      ],
      [
        "à°¸",
        "à°¯"
      ],
      [
        "à°ļ",
        "à°µà°ļ"
      ],
      [
        "Ġà°Ĩ",
        "à°¦à°°"
      ],
      [
        "à°ľà°¨",
        "à°°"
      ],
      [
        "à±ĭ",
        "?\""
      ],
      [
        "à°¯",
        "à°µà°ļ"
      ],
      [
        "à°ļ",
        "à°¬"
      ],
      [
        "à°ļ",
        "à°®à°¨"
      ],
      [
        "ĊčĊ",
        "Ġ"
      ],
      [
        "à°ķà°¡",
        "à°¨"
      ],
      [
        "à°¡",
        "à°Ĺà°²"
      ],
      [
        "à°µ",
        "à°µ"
      ],
      [
        "à±Ģ",
        "-"
      ],
      [
        "Ġà°µ",
        "à°³"
      ],
      [
        "Ġà°ĩ",
        "à°³"
      ],
      [
        "Ġà°¹",
        "à°¸"
      ],
      [
        "à±ĩà°Ĥ",
        "?\""
      ],
      [
        "Ġà°§",
        "à°°à°£"
      ],
      [
        "à°ĩ",
        "à°²"
      ],
      [
        "Ġà°¸à°¹",
        "à°ľ"
      ],
      [
        "Ġà°Ĳ",
        "à°¶"
      ],
      [
        "à°Ĵ",
        "à°°"
      ],
      [
        "Ġà°",
        "£"
      ],
      [
        "à°¤",
        "à°ķà°¨"
      ],
      [
        "à°µ",
        "à°¶"
      ],
      [
        "à°®",
        "à°¹"
      ],
      [
        "Ġà°Ĩ",
        "à°ļ"
      ],
      [
        "Ġà°ĩ",
        "à°µà°¨"
      ],
      [
        "Ġà°ħà°²",
        "à°¸"
      ],
      [
        "à°¦à°²",
        "à°¯"
      ],
      [
        "à°²",
        "à°µà°²"
      ],
      [
        "à°¤",
        "à°ľ"
      ],
      [
        "à°ļ",
        "à°ķà°ª"
      ],
      [
        "à°ĩ",
        "à°¨"
      ],
      [
        "à°Ĩ",
        "à°¯à°¨"
      ],
      [
        "à°²à°®",
        "à°¯"
      ],
      [
        "ĊĊčĊ",
        "Ġ"
      ],
      [
        "à°¾",
        "....\""
      ],
      [
        "à°¯",
        "à°ļ"
      ],
      [
        "Ġà°¸",
        "à°ķ"
      ],
      [
        "à°§",
        "à°¸"
      ],
      [
        "Ġà°ľ",
        "à°Ĺà°¨"
      ],
      [
        "à°¾à°Ĥ",
        "!"
      ],
      [
        "Ġà°Ĵ",
        "à°°"
      ],
      [
        "Ġà°¤à°¨",
        "à°®"
      ],
      [
        "à°¥",
        "à°ķ"
      ],
      [
        "Ġà°ķà°²",
        "à°µà°°"
      ],
      [
        "Ġà°ļà°²",
        "à°ªà°¤"
      ],
      [
        "à±į",
        "....\""
      ],
      [
        "à°¨",
        "à°ªà°¡"
      ],
      [
        "à°¡",
        "à°µà°²"
      ],
      [
        "à°Ł",
        "à°²à°¨"
      ],
      [
        "à°µ",
        "à°¤à°®"
      ],
      [
        "à°¸",
        "à°µ"
      ],
      [
        "Ġà°®",
        "à°¯"
      ],
      [
        "Ġà°¤",
        "à°¦"
      ],
      [
        "à°§",
        "à°®à°¯"
      ],
      [
        "ĠčĊ",
        "Ġ"
      ],
      [
        "Ġà°®à°¨",
        "à°²"
      ],
      [
        "Ġà°ħà°®",
        "à°²"
      ],
      [
        "à°¿....",
        ".."
      ],
      [
        "à°¯",
        "à°²à°ķ"
      ],
      [
        "Ġà°µ",
        "à°ľ"
      ],
      [
        "à°¶",
        "à°²"
      ],
      [
        "Ġà°¯",
        "à°®"
      ],
      [
        "Ġà°Ī",
        "à°²"
      ],
      [
        "à°·à°£",
        "à°ķ"
      ],
      [
        "Ġà°ªà°¦",
        "à°ķ"
      ],
      [
        "à°°à°µ",
        "à°¹"
      ],
      [
        "à°Ĥ",
        "....."
      ],
      [
        "à±ĩ",
        "...\""
      ],
      [
        "à°Ł",
        "à°¤"
      ],
      [
        "à°µ",
        "à°Ń"
      ],
      [
        "Ġà°¤",
        "à°®à°ķ"
      ],
      [
        "Ġà°ľ",
        "à°¡"
      ],
      [
        "Ġà°ı",
        "à°³"
      ],
      [
        "Ġà°Ń",
        "à°¯à°®"
      ],
      [
        "à°¥",
        "à°°"
      ],
      [
        "Ġà°ªà°¡",
        "à°ķ"
      ],
      [
        "Ġà°®à°¹",
        "à°¤"
      ],
      [
        "à±ģ",
        "_"
      ],
      [
        "à°¡",
        "à°ķà°ª"
      ],
      [
        "à°Ĺ",
        "à°²à°¨"
      ],
      [
        "Ġà°µ",
        "à°¶"
      ],
      [
        "čĊ",
        "ĠĠĠ"
      ],
      [
        "Ġà°Ĺ",
        "à°ľ"
      ],
      [
        "à°¾?",
        "'"
      ],
      [
        "à°°à°¸",
        "à°¨"
      ],
      [
        "à°ļà°¨",
        "à°Ĺ"
      ],
      [
        "__",
        "_"
      ],
      [
        "Ġà°ķà°¥",
        "à°²"
      ],
      [
        "ĠĠĠĠĠĠĠĠĠĠĠĠ",
        "Ġ"
      ],
      [
        "à°Ĥ",
        "'"
      ],
      [
        "à°®",
        "à°¸"
      ],
      [
        "Ġà°¬",
        "à°¡"
      ],
      [
        "à°«",
        "à°²"
      ],
      [
        "Ġà°ĵ",
        "à°¡"
      ],
      [
        "à°Ĺ",
        "à°¸"
      ],
      [
        "à°³",
        "à°¬"
      ],
      [
        "Ġà°°",
        "à°·"
      ],
      [
        "à°¶",
        "à°¯"
      ],
      [
        "Ġà°ı",
        "à°¨"
      ],
      [
        "Ġà°Ī",
        "à°®"
      ],
      [
        "à°ĩ",
        "à°µ"
      ],
      [
        "Ġà°ªà°¦",
        "à°µ"
      ],
      [
        "à°¿.....",
        "\""
      ],
      [
        "à±ĭ",
        "....."
      ],
      [
        "à±ģ.",
        "....\""
      ],
      [
        "à°¬",
        "à°¯"
      ],
      [
        "Ġà°ī",
        "à°ļ"
      ],
      [
        "à°®à°¨",
        "à°°"
      ],
      [
        "Ġà°ħà°µ",
        "à°¨"
      ],
      [
        "à°¯à°ķ",
        "à°ª"
      ],
      [
        "à°İ",
        "à°ª"
      ],
      [
        "à°ķ",
        "à°£"
      ],
      [
        "Ġà°¨",
        "à°¯"
      ],
      [
        "Ġà°ĩ",
        "à°¹"
      ],
      [
        "Ġà°İ",
        "à°µà°¡"
      ],
      [
        "à°§",
        "à°ª"
      ],
      [
        "Ġà°Ī",
        "à°µ"
      ],
      [
        "à°¤à°®",
        "à°¯"
      ],
      [
        "à°¾à°Ĥ.",
        "\""
      ],
      [
        "Ġ....",
        ".."
      ],
      [
        "Ġà°İ",
        "à°µ"
      ],
      [
        "čĊĠčĊ",
        "ĠĠ"
      ],
      [
        "à°µà°¤",
        "à°²à°ķ"
      ],
      [
        "Ġà°ħà°¸",
        "à°¹à°¨"
      ],
      [
        "Ġà°ĸ",
        "à°ļ"
      ],
      [
        "à±ģ-",
        "\""
      ],
      [
        "Ġ",
        "Ċ"
      ],
      [
        "à°¯",
        "à°Ń"
      ],
      [
        "à°¯",
        "à°µà°²à°¸"
      ],
      [
        "à°Ĺ",
        "à°ª"
      ],
      [
        "Ġà°µ",
        "à°¹"
      ],
      [
        "Ġà°µ",
        "à°°à°¸"
      ],
      [
        "Ġà°¤",
        "à°¤"
      ],
      [
        "à°³",
        "à°Ł"
      ],
      [
        "à°³",
        "à°Ĺ"
      ],
      [
        "Ġà°ħà°¨",
        "à°ķ"
      ],
      [
        "Ġà°¬",
        "à°¤à°ķ"
      ],
      [
        "à°£",
        "à°¨"
      ],
      [
        "Ġà°¹",
        "à°ķ"
      ],
      [
        "Ġà°ĵ",
        "à°¦"
      ],
      [
        "Ġà°ĵ",
        "à°¸"
      ],
      [
        "à°Ĺà°²",
        "à°¡"
      ],
      [
        "à°Ĺà°²",
        "à°µ"
      ],
      [
        "Ġ1",
        "0"
      ],
      [
        "Ġà°Ĩà°¸",
        "à°ķ"
      ],
      [
        "à°ķ",
        "à°ļ"
      ],
      [
        "Ġà°µ",
        "à°¤"
      ],
      [
        "à°³",
        "à°ª"
      ],
      [
        "à°¶",
        "à°ª"
      ],
      [
        "Ġà°ľ",
        "à°¸"
      ],
      [
        "Ġà°ľ",
        "à°¬"
      ],
      [
        "Ġà°ķà°²",
        "à°°"
      ],
      [
        "à°İ",
        "à°¨"
      ],
      [
        "Ġ1",
        "1"
      ],
      [
        "ĠĠĠĠĠĠĠĠĠĠĠĠ",
        "ĠĠ"
      ],
      [
        "i",
        "n"
      ],
      [
        "à°¦",
        "à°¤à°¨"
      ],
      [
        "à°ª",
        "à°ľ"
      ],
      [
        "Ġà°ª",
        "à°Ĺà°²"
      ],
      [
        "à°·",
        "à°§"
      ],
      [
        "Ġà°ĩ",
        "à°¤à°°"
      ],
      [
        "à°¦à°¨",
        "à°²"
      ],
      [
        "à°Łà°²",
        "à°¤"
      ],
      [
        "Ġà°Ĺà°£",
        "à°ªà°¤"
      ],
      [
        "*",
        "*"
      ],
      [
        "à°µ",
        "à°¹"
      ],
      [
        "à°®",
        "à°¶"
      ],
      [
        "Ġà°Ĺ",
        "à°µà°°"
      ],
      [
        "Ġà°ľ",
        "à°ª"
      ],
      [
        "Ġà°ī",
        "à°®"
      ],
      [
        "à°Ń",
        "à°¨"
      ],
      [
        "à°Ń",
        "à°¦"
      ],
      [
        "Ġà°Ĵà°ķ",
        "à°¡"
      ],
      [
        "à°¥",
        "à°¨"
      ],
      [
        "Ġ",
        "a"
      ],
      [
        "Ġà°µ",
        "à°§"
      ],
      [
        "Ġà°ķ",
        "à°²à°ķ"
      ],
      [
        "Ġà°Ĩ",
        "à°Łà°²"
      ],
      [
        "à°²à°¨",
        "à°Ĺ"
      ],
      [
        "Ġà°Ĩà°®",
        "à°¨"
      ],
      [
        "Ġà°ķà°¨",
        "à°ķ"
      ],
      [
        "à°·à°£",
        "à°²"
      ],
      [
        "à°¯à°¡",
        "à°®"
      ],
      [
        "Ġà°ĭ",
        "à°¤"
      ],
      [
        "à°¤",
        "à°¬"
      ],
      [
        "Ġà°ħ",
        "à°²à°ķ"
      ],
      [
        "à±Ģ",
        "'"
      ],
      [
        "Ġà°ª",
        "à°¬"
      ],
      [
        "Ġà°®",
        "à°¡"
      ],
      [
        "Ġà°¬",
        "à°ľ"
      ],
      [
        "Ġà°²",
        "à°µ"
      ],
      [
        "Ġà°ı",
        "à°¡à°µ"
      ],
      [
        "à°°à°®",
        "à°°"
      ],
      [
        "à°®à°¨",
        "à°¸"
      ],
      [
        "Ġà°Ł",
        "à°ķ"
      ],
      [
        "Ġà°ªà°¡",
        "à°¤"
      ],
      [
        "à°·à°¨",
        "à°²"
      ],
      [
        "à°¦à°²",
        "à°ļ"
      ],
      [
        "Ġà°µà°°",
        "à°¦à°°"
      ],
      [
        "Ġ1",
        "2"
      ],
      [
        "à°®",
        "à°¡"
      ],
      [
        "à°®",
        "à°¹à°¤"
      ],
      [
        "à°¬",
        "à°ķ"
      ],
      [
        "Ġà°°",
        "à°¤"
      ],
      [
        "Ġà°ħà°¨",
        "à°²"
      ],
      [
        "Ġà°ĩ",
        "à°®"
      ],
      [
        "à°§",
        "à°µà°°"
      ],
      [
        "Ġà°ī",
        "à°¸"
      ],
      [
        "Ġà°Ĵ",
        "à°¤"
      ],
      [
        "Ġà°¤à°¨",
        "à°µ"
      ],
      [
        "Ġà°ķà°²",
        "à°µ"
      ],
      [
        "ĠĠĠĠĠĠĠĠ",
        "ĠĠĠ"
      ],
      [
        "à°µà°Ł",
        "à°®"
      ],
      [
        "à°ł",
        "à°ķ"
      ],
      [
        "Ġà°°à°®à°£",
        "à°°"
      ],
      [
        "à°°",
        "à°³"
      ],
      [
        "à°®",
        "à°²à°ķ"
      ],
      [
        "à°Ĺ",
        "à°¤à°¨"
      ],
      [
        "Ġà°ķ",
        "à°§"
      ],
      [
        "Ġà°®",
        "à°£"
      ],
      [
        "Ġà°¨",
        "à°¡à°µ"
      ],
      [
        "à°£",
        "à°ķ"
      ],
      [
        "Ġà°ľ",
        "à°®"
      ],
      [
        "Ġà°Ī",
        "à°¨"
      ],
      [
        "à°ĸ",
        "à°²"
      ],
      [
        "à°°à°¤",
        "à°¦"
      ],
      [
        "Ġà°ľà°¯",
        "à°ļ"
      ],
      [
        "Ġà°",
        "Ŀ"
      ],
      [
        "à°¿",
        ")"
      ],
      [
        "à°¨",
        "à°¦à°¨"
      ],
      [
        "à°°",
        "à°Łà°°"
      ],
      [
        "à°°",
        "à°ªà°Ł"
      ],
      [
        "à°ķ",
        "à°¬"
      ],
      [
        "à°¡",
        "à°ļ"
      ],
      [
        "Ġà°ķ",
        "à°ł"
      ],
      [
        "Ġà°ļ",
        "à°¸"
      ],
      [
        "Ġà°¨",
        "à°°à°ķ"
      ],
      [
        "Ġà°¸",
        "à°ķà°²"
      ],
      [
        "Ġà°Ĵà°ķ",
        "à°ª"
      ],
      [
        "ĠĠĠĠĠĠĠĠ",
        "ĠĠ"
      ],
      [
        "à°ī",
        "à°¹"
      ],
      [
        "Ġ",
        "....\""
      ],
      [
        "à°¨",
        "à°¬"
      ],
      [
        "à°ª",
        "à°®à°¨"
      ],
      [
        "à°Ĺ",
        "à°£"
      ],
      [
        "Ġà°®",
        "à°ļ"
      ],
      [
        "Ġà°ļ",
        "à°¤"
      ],
      [
        "Ġà°¨",
        "à°¶"
      ],
      [
        "Ġà°¸",
        "à°ª"
      ],
      [
        "Ġà°ħà°¨",
        "à°¸"
      ],
      [
        "à°ı",
        "à°¯"
      ],
      [
        "0",
        "0"
      ],
      [
        "à°ª",
        "à°¸"
      ],
      [
        "à°µ",
        "à°³"
      ],
      [
        "Ġà°µ",
        "à°ķ"
      ],
      [
        "Ġà°°",
        "à°¥"
      ],
      [
        "Ġà°°",
        "à°ļà°¨à°²"
      ],
      [
        "à°¶",
        "à°µà°°"
      ],
      [
        "Ġà°İ",
        "à°²à°ķ"
      ],
      [
        "à°¾à°Ĥ",
        "!\""
      ],
      [
        "à°°à°®",
        "à°¯"
      ],
      [
        "Ġà°¤à°²",
        "à°¤"
      ],
      [
        "à°ķà°°",
        "à°£"
      ],
      [
        "à°ĩ",
        "à°Ł"
      ],
      [
        "Ġà°Ĭ",
        "à°Ĺ"
      ],
      [
        "à°°à°Ĺ",
        "à°¡"
      ],
      [
        "Ġà°¨à°²",
        "à°Ń"
      ],
      [
        "à°¿-",
        "\""
      ],
      [
        "à°±",
        "à°ķ"
      ],
      [
        "à°ķ",
        "à°ľ"
      ],
      [
        "à±ĩ",
        "'"
      ],
      [
        "à°µ",
        "à°¬"
      ],
      [
        "à°¯",
        "à°µà°¤"
      ],
      [
        "à°¸",
        "à°Ł"
      ],
      [
        "à°ļ",
        "à°µ"
      ],
      [
        "à±ģ.",
        ")"
      ],
      [
        "Ġà°¸",
        "à°µà°°"
      ],
      [
        "ĊčĊ",
        "ĠĠ"
      ],
      [
        "Ġà°ħà°¨",
        "à°¬"
      ],
      [
        "Ġà°ī",
        "à°ľ"
      ],
      [
        "à°°à°ķ",
        "à°²"
      ],
      [
        "à°°à°¤",
        "à°ķ"
      ],
      [
        "à°Ĺà°²",
        "à°¦"
      ],
      [
        "Ġà°ıà°¦",
        "à°¯"
      ],
      [
        "à°¡à°µ",
        "à°Ĺ"
      ],
      [
        "Ġà°µà°°",
        "à°²"
      ],
      [
        "Ġà°®à°¹",
        "à°°"
      ],
      [
        "à±ĭ.",
        "\""
      ],
      [
        "à°ĵ",
        "à°¹"
      ],
      [
        "Ġà°¨à°µà°²",
        "à°²"
      ],
      [
        "Ġ",
        "!\""
      ],
      [
        "à°¿",
        "__"
      ],
      [
        "à°¨",
        "à°¤à°¨"
      ],
      [
        "à°®",
        "à°Łà°²"
      ],
      [
        "à°Ĺ",
        "à°ªà°¡"
      ],
      [
        "à°ļ",
        "à°µà°²à°¸"
      ],
      [
        "Ġà°ħ",
        "à°ĸ"
      ],
      [
        "à±Ĥ",
        "....."
      ],
      [
        "à°¬",
        "à°¨"
      ],
      [
        "à±Ī",
        ","
      ],
      [
        "Ġà°ľ",
        "à°Ĺ"
      ],
      [
        "Ġà°ī",
        "à°¡"
      ],
      [
        "Ġà°¯",
        "à°¸"
      ],
      [
        "à°°à°®",
        "à°¨"
      ],
      [
        "Ġà°¤à°²",
        "à°²"
      ],
      [
        "Ġà°¸à°®",
        "à°ķ"
      ],
      [
        "Ġà°ĵ",
        "à°°"
      ],
      [
        "Ġà°ħà°ķ",
        "à°¸"
      ],
      [
        "à°ļà°¨",
        "à°²à°¤"
      ],
      [
        "à°³à°¨",
        "à°Ĺ"
      ],
      [
        "Ġà°¤à°¡",
        "à°¬à°¡"
      ],
      [
        "à°¨",
        "à°¤à°²"
      ],
      [
        "à°Ł",
        "à°®à°¨"
      ],
      [
        "à±Ĩ",
        ","
      ],
      [
        "à°¬",
        "à°¦"
      ],
      [
        "Ġà°Ĺ",
        "à°®"
      ],
      [
        "à°ľ",
        "à°¡"
      ],
      [
        "Ġà°¦",
        "à°Ł"
      ],
      [
        "Ġà°¦",
        "à°¬"
      ],
      [
        "à°Ń",
        "à°ķ"
      ],
      [
        "Ġà°¯",
        "à°§"
      ],
      [
        "à°ħ",
        "à°¡"
      ],
      [
        "Ġà°ħà°°",
        "à°ļ"
      ],
      [
        "Ġà°ħà°°",
        "à°£"
      ],
      [
        "Ġà°§",
        "à°¨à°µ"
      ],
      [
        "Ġà°Ĩà°¶",
        "à°²"
      ],
      [
        "à°¯",
        "à°²à°¨"
      ],
      [
        "à°ļ",
        "à°ª"
      ],
      [
        "Ġà°µ",
        "à°Ĺ"
      ],
      [
        "Ġà°ķ",
        "à°£"
      ],
      [
        "à±Ĥ",
        "...\""
      ],
      [
        "Ġà°¤",
        "à°µ"
      ],
      [
        "Ġà°¬",
        "à°¨"
      ],
      [
        "à°§",
        "à°¨à°²"
      ],
      [
        "Ġà°Ĵà°ķ",
        "à°ļ"
      ],
      [
        "Ġà°®à°¨",
        "à°¦"
      ],
      [
        "Ġà°Ī",
        "à°¡"
      ],
      [
        "à°¤à°®",
        "à°Ĺ"
      ],
      [
        "à°°à°¹",
        "à°¸"
      ],
      [
        "Ġ1",
        "4"
      ],
      [
        "Ġ1",
        "5"
      ],
      [
        "à°¯à°µ",
        "à°§"
      ],
      [
        "čĊĠĠ",
        "čĊ"
      ],
      [
        "à±ģ",
        ":"
      ],
      [
        "à°²",
        "à°²à°¨"
      ],
      [
        "à°¤",
        "à°°à°®"
      ],
      [
        "à°¡",
        "à°®à°¨"
      ],
      [
        "à°Ĺ",
        "à°Ĺ"
      ],
      [
        "à°¸",
        "à°ª"
      ],
      [
        "Ġà°ª",
        "à°ª"
      ],
      [
        "Ġà°¤",
        "à°Ĺà°²"
      ],
      [
        "Ġà°Ĩ",
        "à°µà°°"
      ],
      [
        "à°·",
        "à°µ"
      ],
      [
        "Ġà°ī",
        "à°·"
      ],
      [
        "Ġà°Ĵ",
        "à°¦"
      ],
      [
        "....",
        ".."
      ],
      [
        "à°°à°®",
        "à°¤"
      ],
      [
        "à°Ĺà°°",
        "à°¨"
      ],
      [
        "Ġà°ľà°°",
        "à°Ĺà°¬"
      ],
      [
        "Ġ!",
        "!"
      ],
      [
        "Ġ",
        "t"
      ],
      [
        "à°¿",
        "_"
      ],
      [
        "à°ķ",
        "à°²à°¨"
      ],
      [
        "à±ĩ",
        "....\""
      ],
      [
        "à°¸",
        "à°¨à°²"
      ],
      [
        "Ġà°ª",
        "à°¥à°ķ"
      ],
      [
        "à°·",
        "à°ª"
      ],
      [
        "à°¬",
        "à°²à°ķ"
      ],
      [
        "ĊčĊ",
        "ĠčĊ"
      ],
      [
        "Ġà°Ĺ",
        "à°¨à°ķ"
      ],
      [
        "Ġà°ħà°¨",
        "à°°"
      ],
      [
        "à°§",
        "à°¨à°°"
      ],
      [
        "à°¹",
        "à°°à°£"
      ],
      [
        "Ġà°Ĵà°ķ",
        "à°¨"
      ],
      [
        "Ġà°¤à°²",
        "à°¦"
      ],
      [
        "ĠĠĠĠĠĠĠĠ",
        "Ġ"
      ],
      [
        "à°¨à°µ",
        "à°¨"
      ],
      [
        "Ġà°¤à°°",
        "à°ļ"
      ],
      [
        "à°İ",
        "à°®"
      ],
      [
        "Ġà°ļà°¦",
        "à°µ"
      ],
      [
        "Ġ1",
        "3"
      ],
      [
        "Ġà°Ĳ",
        "à°¸"
      ],
      [
        "à°¯à°£",
        "à°°"
      ],
      [
        "Ġ",
        "c"
      ],
      [
        "à°¦",
        "à°®à°¯"
      ],
      [
        "à°¤",
        "à°ªà°¡"
      ],
      [
        "à°Ĺ",
        "à°ļ"
      ],
      [
        "Ġà°¸",
        "à°ľ"
      ],
      [
        "Ġà°İ",
        "à°¡à°®"
      ],
      [
        "à°¹",
        "à°ķ"
      ],
      [
        "à°¦à°°",
        "à°ªà°¡"
      ],
      [
        "Ġà°ĵ",
        "à°¨à°°"
      ],
      [
        "à°¤à°¨",
        "à°ķ"
      ],
      [
        "à°¨à°µ",
        "à°¸à°°"
      ],
      [
        "à°¨à°®",
        "à°¯"
      ],
      [
        "à°µà°¤",
        "à°²à°¨"
      ],
      [
        "à°°à°Ĺ",
        "à°Ł"
      ],
      [
        "à°°à°Ĺ",
        "à°¬à°¡"
      ],
      [
        "Ġà°Ĳ",
        "à°¡"
      ],
      [
        "Ġà°¦à°¶",
        "à°°à°¥"
      ],
      [
        "o",
        "n"
      ],
      [
        "Ġà°",
        "Ķ"
      ],
      [
        "à°ª",
        "à°ª"
      ],
      [
        "Ġà°ħ",
        "à°·"
      ],
      [
        "à±Ģ",
        "...\""
      ],
      [
        "Ġà°®",
        "à°ķ"
      ],
      [
        "čĊ",
        "ĠĠĠĠĠĠĠĠĠĠĠĠĠĠĠĠ"
      ],
      [
        "Ġà°°",
        "à°¸"
      ],
      [
        "ĊčĊ",
        "ĠĠĠĠĠĠĠĠĠĠĠĠĠĠĠĠ"
      ],
      [
        "à°¶",
        "à°°"
      ],
      [
        "à°¶",
        "à°µ"
      ],
      [
        "Ġà°Ń",
        "à°Ĺ"
      ],
      [
        "Ġà°Ń",
        "à°°à°¦"
      ],
      [
        "Ġà°ħà°²",
        "à°ľà°¡"
      ],
      [
        "à°¯à°¨",
        "à°®"
      ],
      [
        "Ġà°ªà°¡",
        "à°Ł"
      ],
      [
        "Ġà°ĵ",
        "à°·à°§"
      ],
      [
        "à°ı",
        "à°µ"
      ],
      [
        "Ġà°İà°µà°°",
        "à°¯"
      ],
      [
        "à°¿\"",
        "."
      ],
      [
        "Ġà°ªà°¦",
        "à°¹"
      ],
      [
        "à°¡à°²",
        "à°®"
      ],
      [
        "Ġà°¸à°¹",
        "à°¨"
      ],
      [
        "à°°à°ľ",
        "à°²à°ķ"
      ],
      [
        "Ġà°ł",
        "à°ķ"
      ],
      [
        "a",
        "n"
      ],
      [
        "h",
        "e"
      ],
      [
        "o",
        "r"
      ],
      [
        "à°Ĥ",
        "....\""
      ],
      [
        "à°°",
        "à°³à°¯"
      ],
      [
        "à°¬",
        "à°®"
      ],
      [
        "Ġà°ħà°¨",
        "à°Ĺ"
      ],
      [
        "à°¹",
        "à°¦"
      ],
      [
        "Ġà°ľ",
        "à°¯à°¦"
      ],
      [
        "Ġà°ľ",
        "à°Ĺà°¦"
      ],
      [
        "ĠĠĠĠ",
        "ĠĠ"
      ],
      [
        "à°ħ",
        "à°Ł"
      ],
      [
        "Ġà°Ī",
        "à°¯à°¨"
      ],
      [
        "Ġà°¤à°²",
        "à°ļ"
      ],
      [
        "Ġà°¨à°µ",
        "à°¨"
      ],
      [
        "à°°à°¸",
        "à°ķ"
      ],
      [
        "à°ĺ",
        "à°®"
      ],
      [
        "à°ļà°¡",
        "à°®"
      ],
      [
        "ĊĊčĊ",
        "ĠĠ"
      ],
      [
        "Ġ",
        "s"
      ],
      [
        "à°",
        "ĭ"
      ],
      [
        "à°¨",
        "à°²à°ķ"
      ],
      [
        "à°°",
        "à°ĸ"
      ],
      [
        "à°¤",
        "à°²à°¨"
      ],
      [
        "à°Ł",
        "à°ļ"
      ],
      [
        "à°ª",
        "à°ķà°ª"
      ],
      [
        "Ġà°ħ",
        "à°«"
      ],
      [
        "Ġà°¨",
        "à°°à°¸"
      ],
      [
        "à°ľ",
        "à°¯à°µ"
      ],
      [
        "Ġà°²",
        "à°Ĺ"
      ],
      [
        "à°£",
        "à°¸"
      ],
      [
        "Ġà°ī",
        "à°Ĺ"
      ],
      [
        "ĠĠĠĠ",
        "ĠĠĠ"
      ],
      [
        "à°ħ",
        "à°Ń"
      ],
      [
        "à°²à°ķ",
        "à°¨"
      ],
      [
        "à°²à°ķ",
        "à°²"
      ],
      [
        "à°°à°ķ",
        "à°Łà°¨"
      ],
      [
        "à°¯à°ķ",
        "à°°"
      ],
      [
        "Ġà°¤à°°",
        "à°µ"
      ],
      [
        "à°ı",
        "à°¡"
      ],
      [
        "Ġà°İà°µà°°",
        "à°¨"
      ],
      [
        "Ġà°Ĭ",
        "à°¡"
      ],
      [
        "Ġà°ķà°¦",
        "à°²à°ķ"
      ],
      [
        "à°ŀ",
        "à°¤"
      ],
      [
        "Ġà°¨à°¡",
        "à°ķ"
      ],
      [
        "à±Ģ.",
        "\""
      ],
      [
        "Ġà°Ĩà°Ł",
        "à°µ"
      ],
      [
        "ĠĠĠĠĠĠĠĠĠĠĠĠ",
        "ĠĠĠ"
      ],
      [
        "à°ĺà°Łà°¨",
        "à°²"
      ],
      [
        "Ġà°µà°¨",
        "à°ľ"
      ],
      [
        "à°¦",
        "à°ļ"
      ],
      [
        "à±ĭ",
        "'"
      ],
      [
        "à°ª",
        "à°¶"
      ],
      [
        "à°ª",
        "à°µà°²à°¸"
      ],
      [
        "à°¯",
        "à°¤à°¨"
      ],
      [
        "à±Ĩ",
        "!"
      ],
      [
        "à±Ģ",
        "....\""
      ],
      [
        "Ġà°®",
        "à°¦à°¨"
      ],
      [
        "à°ľ",
        "à°¶"
      ],
      [
        "Ġà°¬",
        "à°ķ"
      ],
      [
        "Ġà°Ĵà°ķ",
        "à°¦"
      ],
      [
        "à°¦à°°",
        "à°¦"
      ],
      [
        "à°ħ",
        "à°¤"
      ],
      [
        "à°ħ",
        "à°¤à°¡"
      ],
      [
        "à°°à°®",
        "à°¦"
      ],
      [
        "Ġà°¤à°²",
        "à°®"
      ],
      [
        "à°¨à°µ",
        "à°¤"
      ],
      [
        "à°¨à°®",
        "à°¸"
      ],
      [
        "Ġà°Ĩà°¶",
        "à°¯"
      ],
      [
        "à°¦à°ķ",
        "à°°à°®"
      ],
      [
        "Ġà°ªà°°à°®",
        "à°¹"
      ],
      [
        "Ġà°ħà°£",
        "à°ļ"
      ],
      [
        "o",
        "u"
      ],
      [
        "à±ģ",
        ";"
      ],
      [
        "à°¨",
        "à°ķà°¨"
      ],
      [
        "à°¦",
        "à°®à°¨"
      ],
      [
        "à±ĭ",
        "...\""
      ],
      [
        "à°¯",
        "à°ªà°°"
      ],
      [
        "à°ļ",
        "à°²à°¨"
      ],
      [
        "Ġà°µ",
        "à°ª"
      ],
      [
        "Ġà°ª",
        "à°µà°°"
      ],
      [
        "Ġà°ļ",
        "à°²à°®à°¯"
      ],
      [
        "Ġà°¤",
        "à°®à°¨"
      ],
      [
        "Ġà°¸",
        "à°¸"
      ],
      [
        "Ġà°°",
        "à°ª"
      ],
      [
        "Ġà°°",
        "à°ľà°¨"
      ],
      [
        "Ġà°²",
        "à°¨"
      ],
      [
        "à°£",
        "à°¤"
      ],
      [
        "Ġà°¤à°¨",
        "à°¦"
      ],
      [
        "Ġà°¤à°¨",
        "à°ª"
      ],
      [
        "Ġà°Ń",
        "à°°à°£"
      ],
      [
        "Ġà°«",
        "à°ķ"
      ],
      [
        "Ġà°«",
        "à°£"
      ],
      [
        "à°®à°¨",
        "à°ķ"
      ],
      [
        "Ġà°ķà°²",
        "à°¦"
      ],
      [
        "Ġà°ħà°µ",
        "à°Ĺ"
      ],
      [
        "Ġà°ªà°¡",
        "à°Ĺ"
      ],
      [
        "Ġ'",
        "'"
      ],
      [
        "à°Ĩ",
        "à°Ĺ"
      ],
      [
        "Ġà°¬à°¯à°Ł",
        "à°ª"
      ],
      [
        "Ġà°¸à°¹",
        "à°ķà°°"
      ],
      [
        "à°°",
        "à°Ĺà°¤"
      ],
      [
        "à°Ł",
        "à°¬à°¡"
      ],
      [
        "à°¯",
        "à°¯"
      ],
      [
        "à°ļ",
        "à°ļ"
      ],
      [
        "à°ľ",
        "à°ª"
      ],
      [
        "à°¾à°Ĥ",
        "..."
      ],
      [
        "Ġà°ı",
        "à°ľ"
      ],
      [
        "Ġà°Ń",
        "à°µà°¨"
      ],
      [
        "à°²à°¨",
        "à°¨"
      ],
      [
        "Ġà°Ĵà°ķ",
        "à°³"
      ],
      [
        "Ġà°¯",
        "à°µ"
      ],
      [
        "Ġà°Ī",
        "à°ª"
      ],
      [
        "Ġà°Ī",
        "à°¶"
      ],
      [
        "Ġà°ħà°²",
        "à°²"
      ],
      [
        "à°¤à°¨",
        "à°®"
      ],
      [
        "à°Ĩ",
        "à°²"
      ],
      [
        "à°Ĩ",
        "à°µ"
      ],
      [
        "Ġà°Ĩà°¶",
        "à°Ĺ"
      ],
      [
        "à°°à°¹",
        "à°°"
      ],
      [
        "Ġ1",
        "8"
      ],
      [
        "à°µà°¸",
        "à°°à°®"
      ],
      [
        "Ġà°ļà°ķ",
        "à°ļà°ķ"
      ],
      [
        "à°¬à°²",
        "à°ªà°¤"
      ],
      [
        "Ġà°¤à°Ł",
        "à°ªà°Ł"
      ],
      [
        "!",
        "!"
      ],
      [
        "t",
        "e"
      ],
      [
        "à°¿",
        "à°ĥ"
      ],
      [
        "à°Ĥ",
        "__"
      ],
      [
        "à°ķ",
        "à°·"
      ],
      [
        "à°¦",
        "à°²à°ķ"
      ],
      [
        "à°¡",
        "à°µà°²à°¸"
      ],
      [
        "à°Ł",
        "à°Ĺà°²"
      ],
      [
        "à°µ",
        "à°¯à°®"
      ],
      [
        "à°Ĺ",
        "à°®à°¨"
      ],
      [
        "Ġà°µ",
        "à°¯"
      ],
      [
        "à°¬",
        "à°¯à°Ł"
      ],
      [
        "Ġà°°",
        "à°£"
      ],
      [
        "à°¶",
        "à°¤"
      ],
      [
        "Ġà°ĩ",
        "à°¡"
      ],
      [
        "à°¾à°Ĥ",
        "...."
      ],
      [
        "Ġà°ı",
        "à°Ł"
      ],
      [
        "Ġà°Ĵà°ķ",
        "à°®"
      ],
      [
        "à°¦à°°",
        "à°ª"
      ],
      [
        "à°ªà°¡",
        "à°Ł"
      ],
      [
        "Ġà°ªà°°",
        "à°ļ"
      ],
      [
        "à°¤à°®",
        "à°µ"
      ],
      [
        "à°ı",
        "à°°"
      ],
      [
        "Ġà°ıà°®",
        "à°µ"
      ],
      [
        "à°ļà°²",
        "à°ªà°¤"
      ],
      [
        "Ġ2",
        "0"
      ],
      [
        "à°ī",
        "à°¨"
      ],
      [
        "Ġà°®à°Ĺ",
        "à°ª"
      ],
      [
        "-",
        "\""
      ],
      [
        "1",
        "0"
      ],
      [
        "i",
        "s"
      ],
      [
        "à°",
        "Ŀ"
      ],
      [
        "à°¾",
        ".....\""
      ],
      [
        "à°¨",
        "à°°à°ķ"
      ],
      [
        "à°°",
        "à°µà°²"
      ],
      [
        "à°¡",
        "à°Łà°®"
      ],
      [
        "à°µ",
        "à°¯à°¸"
      ],
      [
        "Ġà°ķ",
        "à°§à°²"
      ],
      [
        "Ġà°¨",
        "à°Ĺà°²"
      ],
      [
        "Ġà°°",
        "à°¦"
      ],
      [
        "Ġà°°",
        "à°Ĺ"
      ],
      [
        "à°¶",
        "à°¨à°®"
      ],
      [
        "Ġà°ī",
        "à°ªà°¨"
      ],
      [
        "à°¾à°Ĥ",
        ","
      ],
      [
        "Ġà°¶",
        "à°¨"
      ],
      [
        "à°Ń",
        "à°¸"
      ],
      [
        "Ġà°®à°¨",
        "à°¨"
      ],
      [
        "Ġà°®à°¨",
        "à°µ"
      ],
      [
        "à°ªà°¡",
        "à°ķ"
      ],
      [
        "à°°à°ķ",
        "à°¨"
      ],
      [
        "à°ĸ",
        "à°ªà°¡"
      ],
      [
        "Ġà°ħà°µ",
        "à°¤"
      ],
      [
        "Ġà°ĵ",
        "à°ķ"
      ],
      [
        "Ġà°°à°ķ",
        "à°®"
      ],
      [
        "à±Ĥ.",
        "\""
      ],
      [
        "Ġ1",
        "6"
      ],
      [
        "à°¾...",
        "?"
      ],
      [
        "à±ĩ....",
        ".."
      ],
      [
        "à°¢",
        "à°®"
      ],
      [
        "Ġ",
        "0"
      ],
      [
        "Ġ",
        "A"
      ],
      [
        "Ġ",
        "o"
      ],
      [
        "Ġ",
        "...\""
      ],
      [
        "à±į",
        ".....\""
      ],
      [
        "à°¾",
        ":"
      ],
      [
        "à°°",
        "à°·"
      ],
      [
        "à°ķ",
        "à°²à°ķ"
      ],
      [
        "à±ĭ",
        "....\""
      ],
      [
        "à°¯",
        "à°¦à°°"
      ],
      [
        "à°ļ",
        "à°¯à°®"
      ],
      [
        "Ġà°¸",
        "à°¯"
      ],
      [
        "Ġà°¸",
        "à°¡à°¨"
      ],
      [
        "Ġà°Ĩ",
        "à°ķà°¸"
      ],
      [
        "Ġà°Ĩ",
        "à°µà°°à°£"
      ],
      [
        "Ġà°ľ",
        "à°Ł"
      ],
      [
        "Ġà°ľ",
        "à°Ĺà°¤"
      ],
      [
        "ĠĠĠĠ",
        "Ġ"
      ],
      [
        "Ġà°Ĵ",
        "à°Ł"
      ],
      [
        "Ġà°¹",
        "à°®"
      ],
      [
        "à°ªà°¡",
        "à°¤"
      ],
      [
        "Ġà°ħà°¡",
        "à°Ĺà°Ł"
      ],
      [
        "à°°à°ķ",
        "à°®"
      ],
      [
        "Ġà°ªà°¡",
        "à°µ"
      ],
      [
        "Ġà°¸à°°",
        "à°³"
      ],
      [
        "Ġà°ľà°°",
        "à°Ĺà°Ł"
      ],
      [
        "à°İ",
        "à°¦"
      ],
      [
        "à°Ĩ",
        "à°¹"
      ],
      [
        "Ġà°Ĩà°¶",
        "à°¤"
      ],
      [
        "à°Łà°ķ",
        "à°®"
      ],
      [
        "à°¾....",
        ".."
      ],
      [
        "à±į....",
        ".."
      ],
      [
        "à±ģ.....",
        ".."
      ],
      [
        "à°§à°ªà°¡",
        "à°¤"
      ],
      [
        "Ġà°¦à°¯",
        "à°ļ"
      ],
      [
        "____",
        "____"
      ],
      [
        "a",
        "r"
      ],
      [
        "e",
        "l"
      ],
      [
        "i",
        "t"
      ],
      [
        "à°¨",
        "à°Ĺà°°"
      ],
      [
        "à°Ĥ",
        "...\""
      ],
      [
        "à°ª",
        "à°¦à°²"
      ],
      [
        "à°µ",
        "à°ľ"
      ],
      [
        "à°µ",
        "à°¨à°®"
      ],
      [
        "à°µ",
        "à°ļà°¨"
      ],
      [
        "à°®",
        "à°²à°¨"
      ],
      [
        "à°ļ",
        "à°¨à°ķ"
      ],
      [
        "Ġà°®",
        "à°¬"
      ],
      [
        "à°³",
        "à°ľ"
      ],
      [
        "Ġà°¸",
        "à°¡"
      ],
      [
        "Ġ\"",
        "...."
      ],
      [
        "à°¬",
        "à°¸"
      ],
      [
        "Ġà°°",
        "à°ļ"
      ],
      [
        "Ġà°°",
        "à°ľ"
      ],
      [
        "Ġà°°",
        "à°ļà°¨"
      ],
      [
        "à°ľ",
        "à°Ĺ"
      ],
      [
        "à°£",
        "à°Ĺ"
      ],
      [
        "Ġà°ľ",
        "à°²à°ª"
      ],
      [
        "Ġà°ī",
        "à°¬"
      ],
      [
        "à°Ń",
        "à°²"
      ],
      [
        "à°¥",
        "à°®à°¯"
      ],
      [
        "Ġà°ħà°¡",
        "à°ķ"
      ],
      [
        "Ġà°ªà°°",
        "à°¸"
      ],
      [
        "à°¯à°¨",
        "à°ķ"
      ],
      [
        "Ġà°ħà°µ",
        "à°¯à°µ"
      ],
      [
        "à°¯à°ķ",
        "à°¤"
      ],
      [
        "à°¾!",
        "'"
      ],
      [
        "Ġà°ĵ",
        "à°Łà°®"
      ],
      [
        "à°ķà°ª",
        "à°ķ"
      ],
      [
        "à°¯à°®",
        "à°µ"
      ],
      [
        "Ġà°ľà°°",
        "à°Ĺà°²"
      ],
      [
        "à°¯à°Ł",
        "à°®"
      ],
      [
        "à°İ",
        "à°Ł"
      ],
      [
        "à°²à°®",
        "à°§"
      ],
      [
        "à°®à°ķ",
        "à°®"
      ],
      [
        "Ġà°¸à°¹",
        "à°¸"
      ],
      [
        "à°Ĭ",
        "à°°"
      ],
      [
        "Ġà°®à°¸",
        "à°ķ"
      ],
      [
        "Ġ",
        "d"
      ],
      [
        "à±ģ",
        "à°ģ"
      ],
      [
        "à°¤",
        "à°ļ"
      ],
      [
        "à±ĩ",
        ".....\""
      ],
      [
        "à°Ł",
        "à°Ĺà°¦"
      ],
      [
        "Ġà°µ",
        "à°Ł"
      ],
      [
        "à±Ĥ",
        "'"
      ],
      [
        "Ġà°Ĩ",
        "à°Ĺà°²"
      ],
      [
        "à°ľ",
        "à°¨à°®"
      ],
      [
        "Ġà°¬",
        "à°¬"
      ],
      [
        "Ġà°ĩ",
        "à°¤"
      ],
      [
        "čĊĠčĊ",
        "Ġ"
      ],
      [
        "à°µà°°",
        "à°¯"
      ],
      [
        "Ġà°¹",
        "à°²"
      ],
      [
        "à°°à°®",
        "à°ķ"
      ],
      [
        "à°°à°®",
        "à°£"
      ],
      [
        "Ġà°ħà°¦",
        "à°¨"
      ],
      [
        "Ġà°«",
        "à°°à°µ"
      ],
      [
        "Ġà°ħà°¡",
        "à°Ĺà°²"
      ],
      [
        "à°¦à°¨",
        "à°¨"
      ],
      [
        "à°ĸ",
        "à°ª"
      ],
      [
        "à°¯à°ķ",
        "à°®"
      ],
      [
        "à±ĩà°Ĥ",
        "."
      ],
      [
        "Ġà°ĵ",
        "à°²"
      ],
      [
        "à°¦à°²",
        "à°µ"
      ],
      [
        "à°Ĩ",
        "à°¨"
      ],
      [
        "à°¡à°µ",
        "à°ķ"
      ],
      [
        "Ġà°¸à°¹",
        "à°ľà°®"
      ],
      [
        "à°§à°®",
        "à°µ"
      ],
      [
        "à°ĥ",
        "\""
      ],
      [
        "à°ī",
        "à°¦"
      ],
      [
        "Ġà°°à°µ",
        "à°³"
      ],
      [
        "à°Ĵà°ķ",
        "à°µ"
      ],
      [
        "à°ļà°Ĺà°²",
        "à°¡"
      ],
      [
        "Ġà°ĺ",
        "à°°"
      ],
      [
        "à°ĭ",
        "à°·"
      ],
      [
        "e",
        "a"
      ],
      [
        "|",
        "|"
      ],
      [
        "Ġ",
        "m"
      ],
      [
        "à°²",
        "à°µà°Ł"
      ],
      [
        "à°¡",
        "à°ķà°²"
      ],
      [
        "à°Ł",
        "à°µà°ļ"
      ],
      [
        "à°ª",
        "à°¥"
      ],
      [
        "à°¯",
        "à°¤à°²"
      ],
      [
        "Ġà°ħ",
        "à°µà°²"
      ],
      [
        "à±Ĥ",
        "....\""
      ],
      [
        "Ġà°ļ",
        "à°²à°¨"
      ],
      [
        "Ġà°Ĺ",
        "à°²à°µ"
      ],
      [
        "à°§",
        "à°µà°²"
      ],
      [
        "Ġà°ı",
        "à°¸"
      ],
      [
        "à°Ń",
        "à°µà°®"
      ],
      [
        "Ġà°ķà°²",
        "à°Ĺ"
      ],
      [
        "à°Ĺà°°",
        "à°²"
      ],
      [
        "à°ĩ",
        "à°¤à°¨"
      ],
      [
        "à°ªà°²",
        "à°®"
      ],
      [
        "à°®à°²",
        "à°¤"
      ],
      [
        "Ġà°īà°¦",
        "à°¯à°®"
      ],
      [
        "à°¤à°°",
        "à°ª"
      ],
      [
        "à°ł",
        "à°¨"
      ],
      [
        "Ġà°Ńà°¯",
        "à°ª"
      ],
      [
        "Ġà°Ĺà°¡",
        "à°ª"
      ],
      [
        "Ġ1",
        "7"
      ],
      [
        "à°¯à°µ",
        "à°¹à°°"
      ],
      [
        "Ġà°ľà°¨",
        "à°°à°²"
      ],
      [
        "Ġà°ĭ",
        "à°¶"
      ],
      [
        "à°¯à°Ĺà°²",
        "à°¡"
      ],
      [
        "Ġà°¯à°®",
        "à°§à°°"
      ],
      [
        "c",
        "e"
      ],
      [
        "Ġ",
        "I"
      ],
      [
        "à°¿",
        ":"
      ],
      [
        "à°²",
        "à°µà°¡"
      ],
      [
        "à°ķ",
        "à°Łà°¨"
      ],
      [
        "à°ķ",
        "à°Ĺà°¦"
      ],
      [
        "à°¡",
        "à°¬à°Ł"
      ],
      [
        "à°Ł",
        "à°ķà°ª"
      ],
      [
        "à°ª",
        "à°¦à°¨"
      ],
      [
        "Ġà°®",
        "à°ľ"
      ],
      [
        "Ġà°¨",
        "à°¸"
      ],
      [
[...]
